{
  "merges": [
    [
      " ",
      "t"
    ],
    [
      "i",
      "n"
    ],
    [
      "h",
      "e"
    ],
    [
      "a",
      "n"
    ],
    [
      "o",
      "n"
    ],
    [
      "e",
      "r"
    ],
    [
      " ",
      "."
    ],
    [
      " t",
      "he"
    ],
    [
      " ",
      "2"
    ],
    [
      "a",
      "l"
    ],
    [
      " ",
      "o"
    ],
    [
      "e",
      "d"
    ],
    [
      "a",
      "r"
    ],
    [
      "a",
      "t"
    ],
    [
      "e",
      "n"
    ],
    [
      "s",
      "t"
    ],
    [
      " ",
      "I"
    ],
    [
      " ",
      "क"
    ],
    [
      "o",
      "r"
    ],
    [
      "d",
      "i"
    ],
    [
      " 2",
      "0"
    ],
    [
      "e",
      "s"
    ],
    [
      " o",
      "f"
    ],
    [
      "i",
      "t"
    ],
    [
      " ",
      "p"
    ],
    [
      " I",
      "n"
    ],
    [
      "i",
      "on"
    ],
    [
      "an",
      "d"
    ],
    [
      "i",
      "c"
    ],
    [
      " ",
      ","
    ],
    [
      " ",
      "1"
    ],
    [
      " ",
      "स"
    ],
    [
      " ",
      "A"
    ],
    [
      " ",
      "("
    ],
    [
      " ",
      "in"
    ],
    [
      " ",
      "c"
    ],
    [
      " ",
      "and"
    ],
    [
      "r",
      "i"
    ],
    [
      " ",
      "s"
    ],
    [
      " ",
      "f"
    ],
    [
      " In",
      "di"
    ],
    [
      "o",
      "m"
    ],
    [
      " ",
      "a"
    ],
    [
      "i",
      "s"
    ],
    [
      "r",
      "e"
    ],
    [
      " ",
      "w"
    ],
    [
      " ",
      "म"
    ],
    [
      " ",
      "C"
    ],
    [
      " ",
      "b"
    ],
    [
      " ",
      "S"
    ],
    [
      "e",
      "t"
    ],
    [
      "en",
      "t"
    ],
    [
      "in",
      "g"
    ],
    [
      " Indi",
      "a"
    ],
    [
      " ",
      "प"
    ],
    [
      " 20",
      "1"
    ],
    [
      " ",
      "ह"
    ],
    [
      " ",
      "P"
    ],
    [
      " ",
      "m"
    ],
    [
      "a",
      "s"
    ],
    [
      " ",
      "T"
    ],
    [
      "o",
      "u"
    ],
    [
      " ",
      "M"
    ],
    [
      " ",
      "R"
    ],
    [
      "i",
      "v"
    ],
    [
      "े",
      "ं"
    ],
    [
      " ",
      "l"
    ],
    [
      " t",
      "o"
    ],
    [
      "l",
      "y"
    ],
    [
      " ",
      "\""
    ],
    [
      " ",
      "B"
    ],
    [
      "e",
      "c"
    ],
    [
      "at",
      "ion"
    ],
    [
      " ",
      "भ"
    ],
    [
      "0",
      "0"
    ],
    [
      "c",
      "h"
    ],
    [
      " ",
      "अ"
    ],
    [
      ")",
      "."
    ],
    [
      "a",
      "m"
    ],
    [
      "e",
      "m"
    ],
    [
      " ",
      "D"
    ],
    [
      " ",
      "n"
    ],
    [
      "u",
      "r"
    ],
    [
      " ",
      "d"
    ],
    [
      "e",
      "v"
    ],
    [
      " ",
      "h"
    ],
    [
      "o",
      "l"
    ],
    [
      "र",
      "त"
    ],
    [
      " ",
      "ज"
    ],
    [
      "i",
      "st"
    ],
    [
      "r",
      "a"
    ],
    [
      " ",
      "H"
    ],
    [
      " ",
      "ప"
    ],
    [
      "g",
      "e"
    ],
    [
      "u",
      "l"
    ],
    [
      "t",
      "h"
    ],
    [
      " ",
      "E"
    ],
    [
      " 1",
      "9"
    ],
    [
      "i",
      "l"
    ],
    [
      " T",
      "he"
    ],
    [
      " ",
      "on"
    ],
    [
      "r",
      "om"
    ],
    [
      "er",
      "s"
    ],
    [
      "r",
      "o"
    ],
    [
      " ",
      "J"
    ],
    [
      " ",
      "e"
    ],
    [
      " 20",
      "0"
    ],
    [
      " ",
      "9"
    ],
    [
      " ",
      "re"
    ],
    [
      "u",
      "t"
    ],
    [
      "7",
      "8"
    ],
    [
      "u",
      "s"
    ],
    [
      " ",
      "N"
    ],
    [
      " ",
      "व"
    ],
    [
      " ",
      "द"
    ],
    [
      " ",
      "न"
    ],
    [
      "c",
      "e"
    ],
    [
      " ",
      "G"
    ],
    [
      "r",
      "es"
    ],
    [
      "i",
      "m"
    ],
    [
      " f",
      "rom"
    ],
    [
      "o",
      "p"
    ],
    [
      "he",
      "r"
    ],
    [
      " ",
      "ब"
    ],
    [
      "u",
      "n"
    ],
    [
      " ",
      "त"
    ],
    [
      "i",
      "r"
    ],
    [
      " t",
      "h"
    ],
    [
      "c",
      "t"
    ],
    [
      "2",
      "0"
    ],
    [
      " I",
      "S"
    ],
    [
      " IS",
      "B"
    ],
    [
      " ISB",
      "N"
    ],
    [
      "ो",
      "ं"
    ],
    [
      " ",
      "g"
    ],
    [
      " 9",
      "78"
    ],
    [
      "e",
      "l"
    ],
    [
      " ",
      "O"
    ],
    [
      " ",
      "र"
    ],
    [
      " f",
      "or"
    ],
    [
      "it",
      "y"
    ],
    [
      "er",
      "n"
    ],
    [
      " ",
      "औ"
    ],
    [
      "l",
      "e"
    ],
    [
      " ",
      "is"
    ],
    [
      "a",
      "st"
    ],
    [
      " औ",
      "र"
    ],
    [
      "ri",
      "g"
    ],
    [
      " ",
      "F"
    ],
    [
      "g",
      "u"
    ],
    [
      "o",
      "t"
    ],
    [
      "b",
      "er"
    ],
    [
      " ",
      "U"
    ],
    [
      " 20",
      "2"
    ],
    [
      "a",
      "d"
    ],
    [
      " ",
      "స"
    ],
    [
      " p",
      "p"
    ],
    [
      " ",
      "3"
    ],
    [
      " ",
      "L"
    ],
    [
      "i",
      "d"
    ],
    [
      "i",
      "g"
    ],
    [
      " ",
      "ar"
    ],
    [
      " A",
      "r"
    ],
    [
      " Indi",
      "an"
    ],
    [
      " R",
      "et"
    ],
    [
      "ev",
      "ed"
    ],
    [
      " ",
      "క"
    ],
    [
      " b",
      "y"
    ],
    [
      " Ret",
      "ri"
    ],
    [
      " Retri",
      "eved"
    ],
    [
      "in",
      "al"
    ],
    [
      " ",
      "W"
    ],
    [
      "a",
      "y"
    ],
    [
      " o",
      "rig"
    ],
    [
      "o",
      "w"
    ],
    [
      "1",
      "9"
    ],
    [
      "res",
      "s"
    ],
    [
      "ar",
      "y"
    ],
    [
      "i",
      "al"
    ],
    [
      "o",
      "v"
    ],
    [
      " orig",
      "inal"
    ],
    [
      "l",
      "d"
    ],
    [
      "iv",
      "ed"
    ],
    [
      "m",
      "ent"
    ],
    [
      " Ar",
      "ch"
    ],
    [
      "o",
      "d"
    ],
    [
      "d",
      "u"
    ],
    [
      "'",
      "s"
    ],
    [
      "u",
      "m"
    ],
    [
      " Arch",
      "ived"
    ],
    [
      " a",
      "s"
    ],
    [
      "ै",
      "।"
    ],
    [
      "it",
      "h"
    ],
    [
      "e",
      "st"
    ],
    [
      "at",
      "e"
    ],
    [
      " ",
      "వ"
    ],
    [
      " A",
      "s"
    ],
    [
      "or",
      "t"
    ],
    [
      "ి",
      "ం"
    ],
    [
      " ",
      "మ"
    ],
    [
      "i",
      "a"
    ],
    [
      " U",
      "n"
    ],
    [
      "o",
      "s"
    ],
    [
      " ",
      "4"
    ],
    [
      "2",
      "00"
    ],
    [
      "i",
      "es"
    ],
    [
      "ec",
      "t"
    ],
    [
      " w",
      "h"
    ],
    [
      " c",
      "on"
    ],
    [
      "e",
      "p"
    ],
    [
      "a",
      "v"
    ],
    [
      " b",
      "e"
    ],
    [
      " ",
      "आ"
    ],
    [
      " ",
      "K"
    ],
    [
      " 201",
      "1"
    ],
    [
      " ",
      "st"
    ],
    [
      " ",
      "ग"
    ],
    [
      "r",
      "it"
    ],
    [
      "f",
      "or"
    ],
    [
      "ర",
      "త"
    ],
    [
      "u",
      "b"
    ],
    [
      "f",
      "f"
    ],
    [
      "ి",
      "."
    ],
    [
      " ",
      "di"
    ],
    [
      "a",
      "k"
    ],
    [
      " w",
      "ith"
    ],
    [
      "ic",
      "al"
    ],
    [
      "an",
      "gu"
    ],
    [
      " ",
      "an"
    ],
    [
      " ",
      "उ"
    ],
    [
      " प",
      "र"
    ],
    [
      "angu",
      "a"
    ],
    [
      " ",
      "&"
    ],
    [
      " ",
      "it"
    ],
    [
      "ers",
      "ity"
    ],
    [
      " ",
      "ल"
    ],
    [
      "ar",
      "t"
    ],
    [
      " H",
      "in"
    ],
    [
      " w",
      "as"
    ],
    [
      "ic",
      "h"
    ],
    [
      "a",
      "b"
    ],
    [
      "ె",
      "ౖ"
    ],
    [
      "on",
      "g"
    ],
    [
      "20",
      "1"
    ],
    [
      " ",
      "V"
    ],
    [
      " C",
      "h"
    ],
    [
      " ",
      "5"
    ],
    [
      "o",
      "c"
    ],
    [
      " ",
      "ర"
    ],
    [
      "or",
      "ld"
    ],
    [
      " e",
      "x"
    ],
    [
      " ",
      "r"
    ],
    [
      " ",
      "इ"
    ],
    [
      "u",
      "d"
    ],
    [
      " ",
      "al"
    ],
    [
      "or",
      "y"
    ],
    [
      "ै",
      "ं"
    ],
    [
      "e",
      "w"
    ],
    [
      " P",
      "ress"
    ],
    [
      "a",
      "in"
    ],
    [
      " ",
      "ए"
    ],
    [
      " ",
      "భ"
    ],
    [
      " ",
      "य"
    ],
    [
      " ar",
      "e"
    ],
    [
      "iv",
      "ersity"
    ],
    [
      " ",
      "అ"
    ],
    [
      "o",
      "g"
    ],
    [
      " ",
      "v"
    ],
    [
      "ou",
      "n"
    ],
    [
      "ion",
      "s"
    ],
    [
      " Un",
      "iversity"
    ],
    [
      "em",
      "ber"
    ],
    [
      "g",
      "h"
    ],
    [
      " ",
      ":"
    ],
    [
      "an",
      "s"
    ],
    [
      " ",
      "న"
    ],
    [
      " o",
      "r"
    ],
    [
      " ",
      "श"
    ],
    [
      " th",
      "at"
    ],
    [
      " ",
      ")"
    ],
    [
      "il",
      "l"
    ],
    [
      "t",
      "er"
    ],
    [
      "ou",
      "r"
    ],
    [
      "iv",
      "e"
    ],
    [
      "a",
      "c"
    ],
    [
      " ",
      "చ"
    ],
    [
      " S",
      "t"
    ],
    [
      "on",
      "om"
    ],
    [
      "u",
      "p"
    ],
    [
      "ation",
      "al"
    ],
    [
      " wh",
      "ich"
    ],
    [
      "e",
      "ar"
    ],
    [
      "en",
      "d"
    ],
    [
      "en",
      "ce"
    ],
    [
      "I",
      "n"
    ],
    [
      " h",
      "as"
    ],
    [
      " ",
      "ద"
    ],
    [
      " c",
      "om"
    ],
    [
      "a",
      "p"
    ],
    [
      "P",
      "D"
    ],
    [
      "PD",
      "F"
    ],
    [
      " ",
      "ಸ"
    ],
    [
      " 1",
      "0"
    ],
    [
      "h",
      "ar"
    ],
    [
      "म",
      "न"
    ],
    [
      "ೆ",
      "ೂ"
    ],
    [
      " 19",
      "9"
    ],
    [
      "st",
      "it"
    ],
    [
      " E",
      "n"
    ],
    [
      "ul",
      "t"
    ],
    [
      "l",
      "i"
    ],
    [
      "r",
      "y"
    ],
    [
      "g",
      "es"
    ],
    [
      "ou",
      "s"
    ],
    [
      "o",
      "st"
    ],
    [
      " ",
      "ఉ"
    ],
    [
      " ",
      "7"
    ],
    [
      " क",
      "र"
    ],
    [
      "ೆ",
      "ೕ"
    ],
    [
      " l",
      "angua"
    ],
    [
      "is",
      "h"
    ],
    [
      " ",
      "un"
    ],
    [
      "ist",
      "ory"
    ],
    [
      " अ",
      "भ"
    ],
    [
      " ",
      "ಮ"
    ],
    [
      " 201",
      "4"
    ],
    [
      "op",
      "ul"
    ],
    [
      "er",
      "e"
    ],
    [
      "c",
      "al"
    ],
    [
      "1",
      "0"
    ],
    [
      " ",
      "6"
    ],
    [
      " A",
      "n"
    ],
    [
      " it",
      "s"
    ],
    [
      "in",
      "e"
    ],
    [
      "u",
      "re"
    ],
    [
      ".",
      "."
    ],
    [
      "di",
      "a"
    ],
    [
      "is",
      "m"
    ],
    [
      "ov",
      "ern"
    ],
    [
      " ",
      "ಪ"
    ],
    [
      " C",
      "on"
    ],
    [
      " Hin",
      "du"
    ],
    [
      "ou",
      "th"
    ],
    [
      "cal",
      "f"
    ],
    [
      " ",
      "च"
    ],
    [
      "t",
      "s"
    ],
    [
      "et",
      "calf"
    ],
    [
      "ग",
      "मन"
    ],
    [
      "at",
      "ed"
    ],
    [
      "ರ",
      "ತ"
    ],
    [
      " p",
      "ro"
    ],
    [
      "r",
      "u"
    ],
    [
      "as",
      "s"
    ],
    [
      " स",
      "म"
    ],
    [
      "ि",
      ":"
    ],
    [
      " ",
      "he"
    ],
    [
      "stit",
      "ut"
    ],
    [
      "overn",
      "ment"
    ],
    [
      " in",
      "t"
    ],
    [
      " J",
      "u"
    ],
    [
      "ast",
      "e"
    ],
    [
      "g",
      "et"
    ],
    [
      "c",
      "l"
    ],
    [
      " अ",
      "न"
    ],
    [
      "t",
      "ion"
    ],
    [
      "am",
      "e"
    ],
    [
      "h",
      "i"
    ],
    [
      " ",
      "थ"
    ],
    [
      " 1",
      "8"
    ],
    [
      ".",
      ")."
    ],
    [
      ".",
      ";"
    ],
    [
      " M",
      "etcalf"
    ],
    [
      " इ",
      "स"
    ],
    [
      "ic",
      "ial"
    ],
    [
      " ",
      "at"
    ],
    [
      "en",
      "s"
    ],
    [
      " w",
      "ere"
    ],
    [
      "ou",
      "gh"
    ],
    [
      "व",
      "र"
    ],
    [
      "e",
      "f"
    ],
    [
      "l",
      "o"
    ],
    [
      "i",
      "f"
    ],
    [
      "ri",
      "d"
    ],
    [
      " H",
      "istory"
    ],
    [
      "5",
      "0"
    ],
    [
      "opul",
      "ation"
    ],
    [
      "o",
      "k"
    ],
    [
      " re",
      "g"
    ],
    [
      "for",
      "d"
    ],
    [
      "त",
      "र"
    ],
    [
      "ಗ",
      "ಳ"
    ],
    [
      ")",
      ","
    ],
    [
      " C",
      "om"
    ],
    [
      "e",
      "x"
    ],
    [
      " p",
      "art"
    ],
    [
      "ैं",
      "।"
    ],
    [
      " ",
      "ಭ"
    ],
    [
      "In",
      "dia"
    ],
    [
      "T",
      "he"
    ],
    [
      " Ju",
      "ly"
    ],
    [
      "x",
      "ford"
    ],
    [
      "र",
      "क"
    ],
    [
      " ",
      "జ"
    ],
    [
      "2",
      "6"
    ],
    [
      " ",
      "త"
    ],
    [
      "ou",
      "t"
    ],
    [
      " ",
      "k"
    ],
    [
      " 201",
      "9"
    ],
    [
      " 202",
      "1"
    ],
    [
      " 200",
      "7"
    ],
    [
      "ा",
      "।"
    ],
    [
      " ",
      "१"
    ],
    [
      "ub",
      "l"
    ],
    [
      "s",
      "e"
    ],
    [
      " O",
      "xford"
    ],
    [
      " ए",
      "क"
    ],
    [
      "ब",
      "र"
    ],
    [
      " ",
      "8"
    ],
    [
      "c",
      "c"
    ],
    [
      "e",
      "b"
    ],
    [
      "p",
      "ri"
    ],
    [
      " As",
      "ia"
    ],
    [
      "v",
      "er"
    ],
    [
      "es",
      "s"
    ],
    [
      "రత",
      "ద"
    ],
    [
      " ",
      "ఆ"
    ],
    [
      " n",
      "o"
    ],
    [
      "t",
      "in"
    ],
    [
      "om",
      "e"
    ],
    [
      " M",
      "ar"
    ],
    [
      "c",
      "i"
    ],
    [
      "ा",
      "ं"
    ],
    [
      " 1",
      "7"
    ],
    [
      "or",
      "d"
    ],
    [
      "an",
      "a"
    ],
    [
      " 201",
      "0"
    ],
    [
      "p",
      "ort"
    ],
    [
      "an",
      "t"
    ],
    [
      " त",
      "थ"
    ],
    [
      " ",
      "ఇ"
    ],
    [
      "2",
      "1"
    ],
    [
      " a",
      "d"
    ],
    [
      " h",
      "av"
    ],
    [
      " s",
      "ub"
    ],
    [
      " W",
      "orld"
    ],
    [
      " S",
      "outh"
    ],
    [
      "c",
      "y"
    ],
    [
      " c",
      "l"
    ],
    [
      "ు",
      "ం"
    ],
    [
      "ic",
      "s"
    ],
    [
      "or",
      "e"
    ],
    [
      "a",
      "j"
    ],
    [
      " ",
      "ಹ"
    ],
    [
      "00",
      "0"
    ],
    [
      "i",
      "an"
    ],
    [
      "o",
      "ber"
    ],
    [
      "er",
      "al"
    ],
    [
      "l",
      "ed"
    ],
    [
      "u",
      "al"
    ],
    [
      "4",
      "7"
    ],
    [
      " 1",
      "6"
    ],
    [
      "stitut",
      "ion"
    ],
    [
      "pri",
      "l"
    ],
    [
      "in",
      "ist"
    ],
    [
      " ",
      "y"
    ],
    [
      " c",
      "ent"
    ],
    [
      " c",
      "h"
    ],
    [
      "ir",
      "st"
    ],
    [
      " 201",
      "8"
    ],
    [
      " ",
      "ಕ"
    ],
    [
      " ",
      "ವ"
    ],
    [
      " 2",
      "6"
    ],
    [
      " 1",
      "5"
    ],
    [
      "er",
      "r"
    ],
    [
      "ation",
      "s"
    ],
    [
      "am",
      "b"
    ],
    [
      ".",
      "\""
    ],
    [
      "1",
      "7"
    ],
    [
      " langua",
      "ge"
    ],
    [
      " b",
      "ec"
    ],
    [
      " A",
      "pril"
    ],
    [
      "od",
      "ern"
    ],
    [
      "w",
      "e"
    ],
    [
      " ज",
      "न"
    ],
    [
      "at",
      "es"
    ],
    [
      "t",
      "her"
    ],
    [
      " O",
      "ct"
    ],
    [
      " Oct",
      "ober"
    ],
    [
      " re",
      "l"
    ],
    [
      "ev",
      "el"
    ],
    [
      "an",
      "ce"
    ],
    [
      " ",
      "–"
    ],
    [
      " 2",
      "5"
    ],
    [
      " hav",
      "e"
    ],
    [
      "a",
      "ct"
    ],
    [
      " A",
      "u"
    ],
    [
      "is",
      "s"
    ],
    [
      "ep",
      "t"
    ],
    [
      "an",
      "g"
    ],
    [
      "h",
      "a"
    ],
    [
      " for",
      "m"
    ],
    [
      " c",
      "aste"
    ],
    [
      "i",
      "k"
    ],
    [
      " s",
      "y"
    ],
    [
      "rid",
      "ge"
    ],
    [
      " ",
      "फ"
    ],
    [
      "ా",
      "ం"
    ],
    [
      " he",
      "l"
    ],
    [
      " hel",
      "p"
    ],
    [
      "im",
      "es"
    ],
    [
      "un",
      "d"
    ],
    [
      "ud",
      "d"
    ],
    [
      " ",
      "us"
    ],
    [
      "h",
      "n"
    ],
    [
      " C",
      "amb"
    ],
    [
      " व",
      "र"
    ],
    [
      " 19",
      "6"
    ],
    [
      "2",
      "3"
    ],
    [
      "I",
      "T"
    ],
    [
      "id",
      "e"
    ],
    [
      "s",
      "p"
    ],
    [
      " com",
      "p"
    ],
    [
      "ic",
      "e"
    ],
    [
      "ar",
      "ge"
    ],
    [
      "ur",
      "y"
    ],
    [
      "ol",
      "og"
    ],
    [
      " t",
      "ra"
    ],
    [
      " Camb",
      "ridge"
    ],
    [
      "ೊ",
      "ೕ"
    ],
    [
      " N",
      "ew"
    ],
    [
      "un",
      "e"
    ],
    [
      " Au",
      "gu"
    ],
    [
      " Augu",
      "st"
    ],
    [
      "ept",
      "ember"
    ],
    [
      " Ch",
      "in"
    ],
    [
      "r",
      "ic"
    ],
    [
      " y",
      "ear"
    ],
    [
      "ro",
      "w"
    ],
    [
      "f",
      "ter"
    ],
    [
      "st",
      "em"
    ],
    [
      "ar",
      "d"
    ],
    [
      " T",
      "h"
    ],
    [
      "err",
      "or"
    ],
    [
      "R",
      "E"
    ],
    [
      "c",
      "es"
    ],
    [
      " n",
      "ot"
    ],
    [
      " 201",
      "2"
    ],
    [
      " ",
      "ed"
    ],
    [
      " S",
      "eptember"
    ],
    [
      " In",
      "d"
    ],
    [
      " int",
      "o"
    ],
    [
      " sy",
      "stem"
    ],
    [
      " e",
      "l"
    ],
    [
      "ा",
      "ँ"
    ],
    [
      "स",
      "म"
    ],
    [
      "1",
      "6"
    ],
    [
      " ",
      "error"
    ],
    [
      " t",
      "ar"
    ],
    [
      " tar",
      "get"
    ],
    [
      " C",
      "IT"
    ],
    [
      " CIT",
      "E"
    ],
    [
      " CITE",
      "RE"
    ],
    [
      " CITERE",
      "F"
    ],
    [
      "di",
      "tion"
    ],
    [
      "e",
      "g"
    ],
    [
      "onom",
      "ic"
    ],
    [
      "ubl",
      "ic"
    ],
    [
      "at",
      "er"
    ],
    [
      "er",
      "v"
    ],
    [
      " 200",
      "6"
    ],
    [
      "e",
      "in"
    ],
    [
      " ब",
      "न"
    ],
    [
      " ",
      "ಬ"
    ],
    [
      " ",
      "-"
    ],
    [
      " of",
      "f"
    ],
    [
      " t",
      "er"
    ],
    [
      " 2",
      "4"
    ],
    [
      " J",
      "une"
    ],
    [
      " c",
      "o"
    ],
    [
      "oun",
      "d"
    ],
    [
      " reg",
      "ion"
    ],
    [
      " s",
      "oc"
    ],
    [
      " ",
      "ec"
    ],
    [
      "an",
      "y"
    ],
    [
      "em",
      "ent"
    ],
    [
      " त",
      "क"
    ],
    [
      " स",
      "रक"
    ],
    [
      " ",
      "ಅ"
    ],
    [
      " s",
      "f"
    ],
    [
      " sf",
      "n"
    ],
    [
      " 201",
      "6"
    ],
    [
      "al",
      "l"
    ],
    [
      " ",
      "em"
    ],
    [
      "ur",
      "ing"
    ],
    [
      " be",
      "en"
    ],
    [
      " s",
      "p"
    ],
    [
      " ",
      "ನ"
    ],
    [
      " ",
      "గ"
    ],
    [
      "an",
      "u"
    ],
    [
      "p",
      "er"
    ],
    [
      " p",
      "er"
    ],
    [
      " 200",
      "9"
    ],
    [
      " B",
      "rit"
    ],
    [
      " f",
      "irst"
    ],
    [
      "as",
      "h"
    ],
    [
      " s",
      "u"
    ],
    [
      " con",
      "t"
    ],
    [
      "p",
      "h"
    ],
    [
      "ు",
      "."
    ],
    [
      "he",
      "m"
    ],
    [
      "ig",
      "h"
    ],
    [
      " D",
      "ec"
    ],
    [
      "m",
      "iss"
    ],
    [
      "ig",
      "n"
    ],
    [
      "el",
      "l"
    ],
    [
      "on",
      "d"
    ],
    [
      "et",
      "we"
    ],
    [
      "etwe",
      "en"
    ],
    [
      "s",
      "on"
    ],
    [
      " य",
      "ह"
    ],
    [
      " ",
      "ध"
    ],
    [
      " 1",
      "4"
    ],
    [
      " ",
      "ఒ"
    ],
    [
      " ",
      "బ"
    ],
    [
      "19",
      "9"
    ],
    [
      " the",
      "ir"
    ],
    [
      " w",
      "orld"
    ],
    [
      "oun",
      "t"
    ],
    [
      "2",
      "8"
    ],
    [
      " C",
      "ent"
    ],
    [
      " M",
      "ay"
    ],
    [
      " E",
      "c"
    ],
    [
      "evel",
      "op"
    ],
    [
      " b",
      "ut"
    ],
    [
      "d",
      "er"
    ],
    [
      " ",
      "ల"
    ],
    [
      " 2",
      "2"
    ],
    [
      "g",
      "l"
    ],
    [
      "g",
      "an"
    ],
    [
      " d",
      "o"
    ],
    [
      "it",
      "ies"
    ],
    [
      "ens",
      "us"
    ],
    [
      " m",
      "ost"
    ],
    [
      " m",
      "ar"
    ],
    [
      "c",
      "on"
    ],
    [
      " th",
      "is"
    ],
    [
      "or",
      "k"
    ],
    [
      " cl",
      "ass"
    ],
    [
      " 1",
      "3"
    ],
    [
      "s",
      "o"
    ],
    [
      " A",
      "l"
    ],
    [
      " 1",
      "1"
    ],
    [
      "\"",
      "."
    ],
    [
      "र",
      "ण"
    ],
    [
      "ಿ",
      "ಂ"
    ],
    [
      "ff",
      "icial"
    ],
    [
      "at",
      "a"
    ],
    [
      " year",
      "s"
    ],
    [
      "i",
      "re"
    ],
    [
      "u",
      "c"
    ],
    [
      "ol",
      "l"
    ],
    [
      " ",
      ";"
    ],
    [
      "p",
      "p"
    ],
    [
      " ",
      "Y"
    ],
    [
      " m",
      "ore"
    ],
    [
      " 2",
      "1"
    ],
    [
      "प",
      "न"
    ],
    [
      "ರತ",
      "ದ"
    ],
    [
      "C",
      "E"
    ],
    [
      " g",
      "overnment"
    ],
    [
      " 201",
      "7"
    ],
    [
      " Mar",
      "ch"
    ],
    [
      " P",
      "ro"
    ],
    [
      "miss",
      "ion"
    ],
    [
      "q",
      "u"
    ],
    [
      "m",
      "e"
    ],
    [
      "ill",
      "ion"
    ],
    [
      "tin",
      "ent"
    ],
    [
      " a",
      "g"
    ],
    [
      " d",
      "ec"
    ],
    [
      "r",
      "al"
    ],
    [
      " b",
      "etween"
    ],
    [
      " al",
      "l"
    ],
    [
      " द",
      "क"
    ],
    [
      " उ",
      "त"
    ],
    [
      "ी",
      "ं"
    ],
    [
      " ",
      "२"
    ],
    [
      " 202",
      "3"
    ],
    [
      " o",
      "ther"
    ],
    [
      " p",
      "ri"
    ],
    [
      "anu",
      "ary"
    ],
    [
      " P",
      "opulation"
    ],
    [
      "ist",
      "an"
    ],
    [
      "or",
      "th"
    ],
    [
      " B",
      "CE"
    ],
    [
      "a",
      "ge"
    ],
    [
      "al",
      "b"
    ],
    [
      "alb",
      "ot"
    ],
    [
      "र",
      "म"
    ],
    [
      "ा",
      ","
    ],
    [
      " ग",
      "य"
    ],
    [
      " ब",
      "ह"
    ],
    [
      "ಿ",
      "ೕ"
    ],
    [
      "ె",
      "ం"
    ],
    [
      "p",
      "t"
    ],
    [
      "as",
      "ed"
    ],
    [
      "8",
      "1"
    ],
    [
      "i",
      "b"
    ],
    [
      "ong",
      "ress"
    ],
    [
      " rel",
      "ig"
    ],
    [
      " 201",
      "5"
    ],
    [
      "in",
      "ce"
    ],
    [
      " p",
      "l"
    ],
    [
      " l",
      "arge"
    ],
    [
      "ct",
      "ion"
    ],
    [
      "m",
      "er"
    ],
    [
      "e",
      "y"
    ],
    [
      "ed",
      "s"
    ],
    [
      " १",
      "९"
    ],
    [
      " ",
      "ರ"
    ],
    [
      " ఉ",
      "న"
    ],
    [
      "ల",
      "న"
    ],
    [
      " ",
      "ఎ"
    ],
    [
      " 3",
      "0"
    ],
    [
      " g",
      "r"
    ],
    [
      " ",
      "ev"
    ],
    [
      " L",
      "angua"
    ],
    [
      "l",
      "es"
    ],
    [
      "ac",
      "k"
    ],
    [
      "con",
      "tinent"
    ],
    [
      "her",
      "n"
    ],
    [
      " con",
      "s"
    ],
    [
      " ",
      "end"
    ],
    [
      "ar",
      "li"
    ],
    [
      "5",
      "1"
    ],
    [
      "olog",
      "y"
    ],
    [
      " ",
      "im"
    ],
    [
      " V",
      "ed"
    ],
    [
      "1",
      "3"
    ],
    [
      " T",
      "albot"
    ],
    [
      " ",
      "ದ"
    ],
    [
      "ు",
      ","
    ],
    [
      " 2",
      "3"
    ],
    [
      "ar",
      "i"
    ],
    [
      " F",
      "eb"
    ],
    [
      "en",
      "g"
    ],
    [
      " J",
      "anuary"
    ],
    [
      " ",
      "'"
    ],
    [
      " 201",
      "3"
    ],
    [
      " 20",
      "20"
    ],
    [
      "an",
      "k"
    ],
    [
      "al",
      "s"
    ],
    [
      "m",
      "a"
    ],
    [
      " al",
      "so"
    ],
    [
      "ing",
      "h"
    ],
    [
      "़",
      "ी"
    ],
    [
      " र",
      "ह"
    ],
    [
      "स",
      "न"
    ],
    [
      " ",
      "శ"
    ],
    [
      "ర",
      "మ"
    ],
    [
      " 19",
      "7"
    ],
    [
      " 1",
      "2"
    ],
    [
      "8",
      "0"
    ],
    [
      " Con",
      "stitution"
    ],
    [
      "ur",
      "es"
    ],
    [
      " In",
      "t"
    ],
    [
      "it",
      "ed"
    ],
    [
      " R",
      "ep"
    ],
    [
      "ans",
      "k"
    ],
    [
      "ansk",
      "rit"
    ],
    [
      "he",
      "d"
    ],
    [
      " o",
      "ver"
    ],
    [
      " t",
      "w"
    ],
    [
      "ur",
      "al"
    ],
    [
      "re",
      "e"
    ],
    [
      "cl",
      "ud"
    ],
    [
      "er",
      "ed"
    ],
    [
      "for",
      "e"
    ],
    [
      " 202",
      "2"
    ],
    [
      " do",
      "i"
    ],
    [
      " स",
      "ब"
    ],
    [
      " सब",
      "स"
    ],
    [
      "i",
      "z"
    ],
    [
      " C",
      "ongress"
    ],
    [
      " N",
      "ational"
    ],
    [
      "ist",
      "ic"
    ],
    [
      "o",
      "ok"
    ],
    [
      " I",
      "t"
    ],
    [
      "est",
      "ern"
    ],
    [
      " S",
      "anskrit"
    ],
    [
      " h",
      "ad"
    ],
    [
      " langua",
      "ges"
    ],
    [
      "os",
      "e"
    ],
    [
      "m",
      "p"
    ],
    [
      "s",
      "h"
    ],
    [
      " bec",
      "ame"
    ],
    [
      "onom",
      "y"
    ],
    [
      "i",
      "et"
    ],
    [
      "o",
      "od"
    ],
    [
      " d",
      "uring"
    ],
    [
      "he",
      "n"
    ],
    [
      "e",
      "at"
    ],
    [
      " P",
      "l"
    ],
    [
      "g",
      "en"
    ],
    [
      " 200",
      "8"
    ],
    [
      " St",
      "ein"
    ],
    [
      "త",
      "ర"
    ],
    [
      "4",
      "6"
    ],
    [
      "em",
      "b"
    ],
    [
      " Hin",
      "di"
    ],
    [
      "c",
      "ri"
    ],
    [
      "gl",
      "ish"
    ],
    [
      "for",
      "m"
    ],
    [
      " Feb",
      "ru"
    ],
    [
      " Febru",
      "ary"
    ],
    [
      " G",
      "overnment"
    ],
    [
      "it",
      "ion"
    ],
    [
      "it",
      "e"
    ],
    [
      " h",
      "um"
    ],
    [
      " sub",
      "continent"
    ],
    [
      " l",
      "ater"
    ],
    [
      "ur",
      "op"
    ],
    [
      "re",
      "at"
    ],
    [
      " ",
      "res"
    ],
    [
      " a",
      "fter"
    ],
    [
      "m",
      "ong"
    ],
    [
      "ow",
      "er"
    ],
    [
      " n",
      "um"
    ],
    [
      "ै",
      ","
    ],
    [
      " अ",
      "ध"
    ],
    [
      "ೆ",
      "."
    ],
    [
      "్",
      "‌"
    ],
    [
      "os",
      "ed"
    ],
    [
      " Com",
      "mission"
    ],
    [
      "en",
      "eral"
    ],
    [
      "u",
      "st"
    ],
    [
      "4",
      "0"
    ],
    [
      "ak",
      "istan"
    ],
    [
      "o",
      "b"
    ],
    [
      "urop",
      "e"
    ],
    [
      " s",
      "up"
    ],
    [
      " n",
      "ort"
    ],
    [
      " soc",
      "ial"
    ],
    [
      " the",
      "re"
    ],
    [
      " ex",
      "p"
    ],
    [
      " Brit",
      "ish"
    ],
    [
      " ",
      "["
    ],
    [
      " in",
      "clud"
    ],
    [
      "an",
      "n"
    ],
    [
      " t",
      "r"
    ],
    [
      " s",
      "h"
    ],
    [
      " 2",
      "8"
    ],
    [
      "2",
      "7"
    ],
    [
      "led",
      "ge"
    ],
    [
      "y",
      "son"
    ],
    [
      "स",
      "क"
    ],
    [
      "ದ",
      "ಲ"
    ],
    [
      " 2",
      "9"
    ],
    [
      " off",
      "icial"
    ],
    [
      " En",
      "glish"
    ],
    [
      "im",
      "e"
    ],
    [
      " Dec",
      "ember"
    ],
    [
      "2",
      "9"
    ],
    [
      "ol",
      "it"
    ],
    [
      " m",
      "odern"
    ],
    [
      "f",
      "l"
    ],
    [
      "er",
      "t"
    ],
    [
      " a",
      "b"
    ],
    [
      " t",
      "ex"
    ],
    [
      " c",
      "a"
    ],
    [
      "4",
      "9"
    ],
    [
      " 2",
      "7"
    ],
    [
      "at",
      "hem"
    ],
    [
      "athem",
      "at"
    ],
    [
      " As",
      "her"
    ],
    [
      "ज",
      "न"
    ],
    [
      " प",
      "ह"
    ],
    [
      "ర",
      "ప"
    ],
    [
      " ",
      "హ"
    ],
    [
      "బ",
      "డ"
    ],
    [
      " 19",
      "50"
    ],
    [
      "s",
      "s"
    ],
    [
      " th",
      "an"
    ],
    [
      "c",
      "ed"
    ],
    [
      ")",
      "\""
    ],
    [
      "en",
      "n"
    ],
    [
      " M",
      "a"
    ],
    [
      " 202",
      "4"
    ],
    [
      " P",
      "akistan"
    ],
    [
      " Chin",
      "a"
    ],
    [
      " Hindu",
      "ism"
    ],
    [
      "ra",
      "v"
    ],
    [
      " nort",
      "hern"
    ],
    [
      " tw",
      "o"
    ],
    [
      " Com",
      "p"
    ],
    [
      "am",
      "ent"
    ],
    [
      "ash",
      "m"
    ],
    [
      " cent",
      "ury"
    ],
    [
      " m",
      "any"
    ],
    [
      "ow",
      "n"
    ],
    [
      "e",
      "ad"
    ],
    [
      " 202",
      "5"
    ],
    [
      "1",
      "5"
    ],
    [
      " इस",
      "क"
    ],
    [
      "ल",
      "य"
    ],
    [
      " ध",
      "र"
    ],
    [
      "क",
      "र"
    ],
    [
      " 200",
      "4"
    ],
    [
      "1",
      "8"
    ],
    [
      "l",
      "and"
    ],
    [
      "ad",
      "e"
    ],
    [
      " ",
      "ri"
    ],
    [
      "a",
      "w"
    ],
    [
      " n",
      "on"
    ],
    [
      " in",
      "c"
    ],
    [
      "ci",
      "ent"
    ],
    [
      " b",
      "o"
    ],
    [
      " su",
      "ch"
    ],
    [
      "ra",
      "ph"
    ],
    [
      " ",
      "up"
    ],
    [
      "ra",
      "ct"
    ],
    [
      "i",
      "p"
    ],
    [
      " S",
      "h"
    ],
    [
      "is",
      "e"
    ],
    [
      " R",
      "out"
    ],
    [
      " Rout",
      "ledge"
    ],
    [
      "is",
      "her"
    ],
    [
      "cy",
      "cl"
    ],
    [
      "cycl",
      "op"
    ],
    [
      " म",
      "ह"
    ],
    [
      "व",
      "त"
    ],
    [
      "ी",
      "।"
    ],
    [
      "ह",
      "र"
    ],
    [
      " ಮ",
      "ತ"
    ],
    [
      "న",
      "ల"
    ],
    [
      " .",
      ".."
    ],
    [
      " ter",
      "m"
    ],
    [
      "an",
      "ge"
    ],
    [
      "a",
      "g"
    ],
    [
      "t",
      "ed"
    ],
    [
      " Langua",
      "ge"
    ],
    [
      " C",
      "ensus"
    ],
    [
      "al",
      "ly"
    ],
    [
      "om",
      "en"
    ],
    [
      " c",
      "ult"
    ],
    [
      "ri",
      "es"
    ],
    [
      " st",
      "ate"
    ],
    [
      " tra",
      "dition"
    ],
    [
      "e",
      "op"
    ],
    [
      "b",
      "an"
    ],
    [
      " el",
      "ect"
    ],
    [
      " on",
      "e"
    ],
    [
      " ",
      "j"
    ],
    [
      "k",
      "e"
    ],
    [
      " En",
      "cyclop"
    ],
    [
      "ed",
      "ia"
    ],
    [
      ")",
      ":"
    ],
    [
      " ब",
      "ड"
    ],
    [
      "र",
      "द"
    ],
    [
      " ",
      "ड"
    ],
    [
      " ",
      "ಆ"
    ],
    [
      "ల",
      "క"
    ],
    [
      " ",
      "ఈ"
    ],
    [
      "వ",
      "ర"
    ],
    [
      " 19",
      "47"
    ],
    [
      "2",
      "2"
    ],
    [
      " As",
      "s"
    ],
    [
      "ou",
      "p"
    ],
    [
      "6",
      "0"
    ],
    [
      "a",
      "ir"
    ],
    [
      " T",
      "imes"
    ],
    [
      " Commission",
      "er"
    ],
    [
      " com",
      "m"
    ],
    [
      " p",
      "opulation"
    ],
    [
      " e",
      "ast"
    ],
    [
      " l",
      "ong"
    ],
    [
      " o",
      "cc"
    ],
    [
      " re",
      "c"
    ],
    [
      " ",
      "her"
    ],
    [
      " E",
      "mp"
    ],
    [
      " ar",
      "t"
    ],
    [
      "ashm",
      "ir"
    ],
    [
      "eop",
      "le"
    ],
    [
      " us",
      "ed"
    ],
    [
      " s",
      "e"
    ],
    [
      " o",
      "ut"
    ],
    [
      "og",
      "raph"
    ],
    [
      "ot",
      "e"
    ],
    [
      " tr",
      "ans"
    ],
    [
      "he",
      "re"
    ],
    [
      "ot",
      "her"
    ],
    [
      " E",
      "urope"
    ],
    [
      "3",
      "3"
    ],
    [
      " S",
      "p"
    ],
    [
      "ल",
      "न"
    ],
    [
      "ು",
      "."
    ],
    [
      "8",
      "7"
    ],
    [
      "ల",
      "ల"
    ],
    [
      " ప",
      "ర"
    ],
    [
      " ఆ",
      "ర"
    ],
    [
      " 200",
      "3"
    ],
    [
      "ff",
      "er"
    ],
    [
      "ern",
      "ational"
    ],
    [
      "r",
      "an"
    ],
    [
      "ing",
      "u"
    ],
    [
      "evelop",
      "ment"
    ],
    [
      "b",
      "al"
    ],
    [
      " n",
      "orth"
    ],
    [
      " B",
      "udd"
    ],
    [
      "ed",
      "i"
    ],
    [
      " r",
      "ul"
    ],
    [
      "aj",
      "or"
    ],
    [
      " m",
      "illion"
    ],
    [
      " inc",
      "re"
    ],
    [
      "le",
      "ar"
    ],
    [
      "res",
      "ent"
    ],
    [
      " H",
      "ar"
    ],
    [
      "im",
      "al"
    ],
    [
      "ou",
      "ld"
    ],
    [
      "y",
      "a"
    ],
    [
      "a",
      "ch"
    ],
    [
      "a",
      "i"
    ],
    [
      " g",
      "row"
    ],
    [
      "if",
      "ic"
    ],
    [
      " un",
      "der"
    ],
    [
      " di",
      "s"
    ],
    [
      "8",
      "5"
    ],
    [
      " a",
      "mong"
    ],
    [
      " O",
      "n"
    ],
    [
      "udd",
      "en"
    ],
    [
      " ",
      "Q"
    ],
    [
      " Q",
      "u"
    ],
    [
      "़",
      "ा"
    ],
    [
      " अ",
      "र"
    ],
    [
      "व",
      "स"
    ],
    [
      " अ",
      "पन"
    ],
    [
      " कर",
      "न"
    ],
    [
      " आ",
      "ध"
    ],
    [
      "प",
      "र"
    ],
    [
      " ",
      "घ"
    ],
    [
      " ",
      "ಜ"
    ],
    [
      "5",
      "7"
    ],
    [
      " gr",
      "oup"
    ],
    [
      "ount",
      "ry"
    ],
    [
      " di",
      "sp"
    ],
    [
      " l",
      "and"
    ],
    [
      "2",
      "5"
    ],
    [
      "ingu",
      "istic"
    ],
    [
      "in",
      "or"
    ],
    [
      "i",
      "ous"
    ],
    [
      "es",
      "h"
    ],
    [
      "in",
      "s"
    ],
    [
      "ar",
      "ly"
    ],
    [
      " st",
      "at"
    ],
    [
      "is",
      "ed"
    ],
    [
      " M",
      "u"
    ],
    [
      "at",
      "ive"
    ],
    [
      "it",
      "ary"
    ],
    [
      "di",
      "t"
    ],
    [
      "i",
      "o"
    ],
    [
      "ical",
      "ly"
    ],
    [
      " ex",
      "t"
    ],
    [
      " bo",
      "th"
    ],
    [
      " a",
      "pp"
    ],
    [
      "e",
      "h"
    ],
    [
      "at",
      "t"
    ],
    [
      "ir",
      "on"
    ],
    [
      "ab",
      "le"
    ],
    [
      " w",
      "ar"
    ],
    [
      " wh",
      "o"
    ],
    [
      "k",
      "et"
    ],
    [
      "r",
      "in"
    ],
    [
      "m",
      "in"
    ],
    [
      "ov",
      "ember"
    ],
    [
      " D",
      "yson"
    ],
    [
      "5",
      "21"
    ],
    [
      "201",
      "8"
    ],
    [
      "र",
      "वर"
    ],
    [
      "न",
      "म"
    ],
    [
      "ಯ",
      "ನ"
    ],
    [
      "వ",
      "స"
    ],
    [
      "9",
      "3"
    ],
    [
      "1",
      "4"
    ],
    [
      "3",
      "0"
    ],
    [
      "..",
      "."
    ],
    [
      "emb",
      "ly"
    ],
    [
      " d",
      "ef"
    ],
    [
      "is",
      "ation"
    ],
    [
      "j",
      "ect"
    ],
    [
      " Un",
      "ited"
    ],
    [
      " t",
      "ime"
    ],
    [
      "in",
      "d"
    ],
    [
      " Ec",
      "onomic"
    ],
    [
      "er",
      "ation"
    ],
    [
      " e",
      "st"
    ],
    [
      "0",
      "7"
    ],
    [
      " s",
      "ince"
    ],
    [
      "di",
      "v"
    ],
    [
      "v",
      "ed"
    ],
    [
      " di",
      "v"
    ],
    [
      "t",
      "a"
    ],
    [
      "uc",
      "lear"
    ],
    [
      "t",
      "en"
    ],
    [
      " f",
      "ound"
    ],
    [
      "ic",
      "es"
    ],
    [
      "th",
      "ough"
    ],
    [
      "es",
      "p"
    ],
    [
      "re",
      "ad"
    ],
    [
      "l",
      "ine"
    ],
    [
      "ol",
      "d"
    ],
    [
      " A",
      "ct"
    ],
    [
      " F",
      "or"
    ],
    [
      "ra",
      "d"
    ],
    [
      " M",
      "odern"
    ],
    [
      "other",
      "m"
    ],
    [
      "otherm",
      "und"
    ],
    [
      "य",
      "क"
    ],
    [
      "०",
      "०"
    ],
    [
      "ತ",
      "ರ"
    ],
    [
      " అ",
      "న"
    ],
    [
      "న",
      "ద"
    ],
    [
      "200",
      "4"
    ],
    [
      " M",
      "us"
    ],
    [
      "l",
      "im"
    ],
    [
      "r",
      "ed"
    ],
    [
      " Ind",
      "o"
    ],
    [
      "ar",
      "a"
    ],
    [
      " Emp",
      "ire"
    ],
    [
      "ec",
      "hn"
    ],
    [
      "ro",
      "du"
    ],
    [
      " re",
      "p"
    ],
    [
      "r",
      "ough"
    ],
    [
      " th",
      "ough"
    ],
    [
      "k",
      "s"
    ],
    [
      " ",
      "en"
    ],
    [
      "ial",
      "ly"
    ],
    [
      " class",
      "ical"
    ],
    [
      "ol",
      "ic"
    ],
    [
      " the",
      "y"
    ],
    [
      "er",
      "y"
    ],
    [
      " ",
      "ra"
    ],
    [
      "e",
      "al"
    ],
    [
      "or",
      "n"
    ],
    [
      " re",
      "m"
    ],
    [
      "t",
      "e"
    ],
    [
      "2",
      "4"
    ],
    [
      "6",
      "7"
    ],
    [
      " N",
      "ovember"
    ],
    [
      "200",
      "6"
    ],
    [
      " Qu",
      "ote"
    ],
    [
      "ि",
      "ं"
    ],
    [
      " ब",
      "ढ"
    ],
    [
      " ",
      "छ"
    ],
    [
      " अ",
      "ल"
    ],
    [
      " CITEREF",
      "S"
    ],
    [
      " ",
      "ಇ"
    ],
    [
      "ೊ",
      "ಂ"
    ],
    [
      " అ",
      "ధ"
    ],
    [
      " ఒ",
      "ర"
    ],
    [
      " Ass",
      "embly"
    ],
    [
      " Int",
      "ernational"
    ],
    [
      " comp",
      "osed"
    ],
    [
      " B",
      "eng"
    ],
    [
      "al",
      "i"
    ],
    [
      "ff",
      "air"
    ],
    [
      "ffair",
      "s"
    ],
    [
      "on",
      "s"
    ],
    [
      " S",
      "oc"
    ],
    [
      " D",
      "ata"
    ],
    [
      "0",
      "5"
    ],
    [
      " Rep",
      "ublic"
    ],
    [
      " s",
      "outh"
    ],
    [
      " A",
      "f"
    ],
    [
      " m",
      "ade"
    ],
    [
      "olit",
      "ical"
    ],
    [
      "id",
      "d"
    ],
    [
      " Cent",
      "ral"
    ],
    [
      "j",
      "ab"
    ],
    [
      " ec",
      "onomic"
    ],
    [
      "an",
      "ges"
    ],
    [
      " ",
      "ro"
    ],
    [
      "r",
      "at"
    ],
    [
      " m",
      "ajor"
    ],
    [
      " K",
      "ashmir"
    ],
    [
      "il",
      "d"
    ],
    [
      " pro",
      "v"
    ],
    [
      " n",
      "ame"
    ],
    [
      " per",
      "i"
    ],
    [
      " peri",
      "od"
    ],
    [
      "ri",
      "b"
    ],
    [
      "v",
      "iron"
    ],
    [
      "viron",
      "ment"
    ],
    [
      "am",
      "il"
    ],
    [
      " pri",
      "me"
    ],
    [
      " m",
      "inist"
    ],
    [
      "har",
      "ma"
    ],
    [
      " S",
      "ch"
    ],
    [
      " m",
      "athemat"
    ],
    [
      " J",
      "o"
    ],
    [
      "ul",
      "ke"
    ],
    [
      " उ",
      "प"
    ],
    [
      " ",
      "ख"
    ],
    [
      " ",
      "ई"
    ],
    [
      " अ",
      "ग"
    ],
    [
      " జ",
      "న"
    ],
    [
      " 199",
      "8"
    ],
    [
      "0",
      "4"
    ],
    [
      "ord",
      "ing"
    ],
    [
      " di",
      "ffer"
    ],
    [
      " s",
      "ome"
    ],
    [
      " disp",
      "ut"
    ],
    [
      " 200",
      "5"
    ],
    [
      " M",
      "inist"
    ],
    [
      " relig",
      "ious"
    ],
    [
      "as",
      "e"
    ],
    [
      "r",
      "am"
    ],
    [
      "b",
      "ook"
    ],
    [
      "em",
      "oc"
    ],
    [
      "er",
      "g"
    ],
    [
      " p",
      "re"
    ],
    [
      "idd",
      "le"
    ],
    [
      "ain",
      "s"
    ],
    [
      "un",
      "jab"
    ],
    [
      " E",
      "ast"
    ],
    [
      " be",
      "gan"
    ],
    [
      "it",
      "er"
    ],
    [
      "er",
      "ing"
    ],
    [
      " s",
      "ec"
    ],
    [
      "ev",
      "er"
    ],
    [
      "n",
      "own"
    ],
    [
      "ur",
      "ban"
    ],
    [
      "et",
      "h"
    ],
    [
      "ow",
      "ing"
    ],
    [
      "ci",
      "ence"
    ],
    [
      " As",
      "ian"
    ],
    [
      " s",
      "c"
    ],
    [
      "or",
      "s"
    ],
    [
      " num",
      "ber"
    ],
    [
      " Th",
      "is"
    ],
    [
      "8",
      "8"
    ],
    [
      "es",
      "e"
    ],
    [
      " 200",
      "1"
    ],
    [
      "200",
      "9"
    ],
    [
      " En",
      "vironment"
    ],
    [
      " Y",
      "ork"
    ],
    [
      " F",
      "rom"
    ],
    [
      "ग",
      "र"
    ],
    [
      " सम",
      "य"
    ],
    [
      " ए",
      "व"
    ],
    [
      "न",
      "क"
    ],
    [
      "त",
      "म"
    ],
    [
      "ैं",
      ","
    ],
    [
      " ಜ",
      "ನ"
    ],
    [
      " క",
      "ల"
    ],
    [
      " ఒ",
      "క"
    ],
    [
      " ter",
      "rit"
    ],
    [
      " ",
      "|"
    ],
    [
      "ీ",
      ":"
    ],
    [
      "at",
      "h"
    ],
    [
      " O",
      "fficial"
    ],
    [
      " n",
      "ational"
    ],
    [
      " M",
      "inor"
    ],
    [
      "is",
      "ion"
    ],
    [
      "lo",
      "bal"
    ],
    [
      " I",
      "s"
    ],
    [
      " Ind",
      "us"
    ],
    [
      " D",
      "el"
    ],
    [
      " Mu",
      "gh"
    ],
    [
      "a",
      "ce"
    ],
    [
      " ec",
      "onomy"
    ],
    [
      " in",
      "fl"
    ],
    [
      " a",
      "cc"
    ],
    [
      "an",
      "i"
    ],
    [
      "iet",
      "y"
    ],
    [
      "ut",
      "ion"
    ],
    [
      "iv",
      "es"
    ],
    [
      "c",
      "om"
    ],
    [
      "ri",
      "s"
    ],
    [
      " ",
      "urban"
    ],
    [
      " n",
      "ew"
    ],
    [
      " the",
      "m"
    ],
    [
      "at",
      "ing"
    ],
    [
      " l",
      "ead"
    ],
    [
      " R",
      "aj"
    ],
    [
      "ur",
      "v"
    ],
    [
      "im",
      "ate"
    ],
    [
      " S",
      "ingh"
    ],
    [
      " 202",
      "6"
    ],
    [
      " O",
      "r"
    ],
    [
      "1",
      "1"
    ],
    [
      "l",
      "l"
    ],
    [
      "us",
      "in"
    ],
    [
      "usin",
      "ess"
    ],
    [
      "य",
      "न"
    ],
    [
      " स",
      "ह"
    ],
    [
      " ",
      "ट"
    ],
    [
      " अ",
      "म"
    ],
    [
      " ",
      "ఏ"
    ],
    [
      "ి",
      ","
    ],
    [
      "య",
      "వస"
    ],
    [
      " స",
      "మ"
    ],
    [
      "ర",
      "స"
    ],
    [
      " ఎ",
      "న"
    ],
    [
      "0",
      "1"
    ],
    [
      "య",
      "బడ"
    ],
    [
      " 5",
      "0"
    ],
    [
      " C",
      "E"
    ],
    [
      " St",
      "ates"
    ],
    [
      "ist",
      "s"
    ],
    [
      "iv",
      "ing"
    ],
    [
      "il",
      "e"
    ],
    [
      " Minist",
      "ry"
    ],
    [
      " A",
      "ffairs"
    ],
    [
      "H",
      "in"
    ],
    [
      "m",
      "ar"
    ],
    [
      " R",
      "eg"
    ],
    [
      " D",
      "evelopment"
    ],
    [
      " ",
      "—"
    ],
    [
      " in",
      "d"
    ],
    [
      "ep",
      "end"
    ],
    [
      "om",
      "in"
    ],
    [
      "at",
      "her"
    ],
    [
      "et",
      "t"
    ],
    [
      " Budd",
      "h"
    ],
    [
      " stat",
      "us"
    ],
    [
      "il",
      "ity"
    ],
    [
      " Del",
      "hi"
    ],
    [
      " P",
      "unjab"
    ],
    [
      "rig",
      "h"
    ],
    [
      "arli",
      "ament"
    ],
    [
      " P",
      "ers"
    ],
    [
      " sp",
      "ec"
    ],
    [
      "i",
      "ans"
    ],
    [
      "ar",
      "s"
    ],
    [
      "d",
      "ay"
    ],
    [
      " on",
      "ly"
    ],
    [
      " m",
      "ain"
    ],
    [
      "em",
      "p"
    ],
    [
      "m",
      "an"
    ],
    [
      "r",
      "ol"
    ],
    [
      "m",
      "inist"
    ],
    [
      "om",
      "et"
    ],
    [
      "ard",
      "s"
    ],
    [
      "am",
      "p"
    ],
    [
      " p",
      "ract"
    ],
    [
      "erv",
      "ed"
    ],
    [
      "tin",
      "u"
    ],
    [
      "r",
      "ing"
    ],
    [
      " minist",
      "er"
    ],
    [
      " 3",
      "1"
    ],
    [
      " A",
      "t"
    ],
    [
      " d",
      "evelop"
    ],
    [
      "an",
      "ces"
    ],
    [
      " 199",
      "4"
    ],
    [
      " d",
      "ance"
    ],
    [
      "O",
      "fficial"
    ],
    [
      " P",
      "ubl"
    ],
    [
      " F",
      "isher"
    ],
    [
      "ic",
      "a"
    ],
    [
      " ए",
      "श"
    ],
    [
      "च",
      "न"
    ],
    [
      " आ",
      "य"
    ],
    [
      " द",
      "र"
    ],
    [
      " पह",
      "ल"
    ],
    [
      " स",
      "क"
    ],
    [
      "श",
      "क"
    ],
    [
      " अग",
      "स"
    ],
    [
      "ರ",
      "ದ"
    ],
    [
      " అ",
      "త"
    ],
    [
      " వ",
      "చ"
    ],
    [
      "వ",
      "త"
    ],
    [
      "5",
      "3"
    ],
    [
      "5",
      "6"
    ],
    [
      "...",
      "]"
    ],
    [
      " P",
      "art"
    ],
    [
      " Un",
      "ion"
    ],
    [
      "9",
      "1"
    ],
    [
      " c",
      "ountry"
    ],
    [
      "ort",
      "al"
    ],
    [
      "200",
      "3"
    ],
    [
      " L",
      "inguistic"
    ],
    [
      "201",
      "4"
    ],
    [
      "am",
      "an"
    ],
    [
      " occ",
      "up"
    ],
    [
      "if",
      "e"
    ],
    [
      "iv",
      "il"
    ],
    [
      "di",
      "an"
    ],
    [
      " f",
      "l"
    ],
    [
      " w",
      "omen"
    ],
    [
      " infl",
      "u"
    ],
    [
      " g",
      "re"
    ],
    [
      " p",
      "eople"
    ],
    [
      "r",
      "on"
    ],
    [
      "arli",
      "est"
    ],
    [
      "a",
      "ges"
    ],
    [
      " hum",
      "an"
    ],
    [
      " k",
      "nown"
    ],
    [
      " Ved",
      "a"
    ],
    [
      "ro",
      "ss"
    ],
    [
      "he",
      "s"
    ],
    [
      " em",
      "p"
    ],
    [
      " R",
      "a"
    ],
    [
      " tex",
      "ts"
    ],
    [
      " h",
      "is"
    ],
    [
      " ca",
      "us"
    ],
    [
      "olic",
      "y"
    ],
    [
      " ",
      "rit"
    ],
    [
      "ul",
      "ar"
    ],
    [
      "ak",
      "e"
    ],
    [
      "our",
      "n"
    ],
    [
      "rodu",
      "ction"
    ],
    [
      "ect",
      "ion"
    ],
    [
      " di",
      "re"
    ],
    [
      "id",
      "ed"
    ],
    [
      " Pl",
      "ate"
    ],
    [
      " con",
      "tinu"
    ],
    [
      " n",
      "ow"
    ],
    [
      " B",
      "e"
    ],
    [
      "at",
      "i"
    ],
    [
      " g",
      "eneral"
    ],
    [
      "8",
      "4"
    ],
    [
      "8",
      "9"
    ],
    [
      " us",
      "e"
    ],
    [
      " be",
      "fore"
    ],
    [
      "y",
      "n"
    ],
    [
      "i",
      "i"
    ],
    [
      "4",
      "3"
    ],
    [
      " U",
      "r"
    ],
    [
      " Hin",
      "d"
    ],
    [
      " Hind",
      "us"
    ],
    [
      "er",
      "ies"
    ],
    [
      " D",
      "av"
    ],
    [
      " L",
      "udden"
    ],
    [
      "ob",
      "b"
    ],
    [
      " S",
      "cience"
    ],
    [
      "8",
      "3"
    ],
    [
      " ल",
      "ग"
    ],
    [
      " ई",
      "स"
    ],
    [
      " क",
      "रत"
    ],
    [
      " क",
      "ई"
    ],
    [
      "य",
      "त"
    ],
    [
      " अ",
      "प"
    ],
    [
      "ದ",
      "ರ"
    ],
    [
      "య",
      "మ"
    ],
    [
      " ద",
      "క"
    ],
    [
      "ల",
      "త"
    ],
    [
      " మ",
      "త"
    ],
    [
      "201",
      "1"
    ],
    [
      "7",
      "0"
    ],
    [
      "stit",
      "u"
    ],
    [
      "stitu",
      "ent"
    ],
    [
      "ana",
      "g"
    ],
    [
      " differ",
      "ent"
    ],
    [
      "in",
      "ed"
    ],
    [
      " 4",
      "6"
    ],
    [
      " m",
      "i"
    ],
    [
      "m",
      "b"
    ],
    [
      " G",
      "u"
    ],
    [
      " re",
      "port"
    ],
    [
      " M",
      "on"
    ],
    [
      " Mus",
      "lim"
    ],
    [
      " s",
      "ev"
    ],
    [
      " p",
      "opul"
    ],
    [
      " ag",
      "o"
    ],
    [
      " l",
      "ife"
    ],
    [
      " w",
      "estern"
    ],
    [
      "le",
      "y"
    ],
    [
      "ir",
      "d"
    ],
    [
      " B",
      "y"
    ],
    [
      "p",
      "l"
    ],
    [
      " b",
      "el"
    ],
    [
      "m",
      "it"
    ],
    [
      "ur",
      "n"
    ],
    [
      "t",
      "y"
    ],
    [
      " Indian",
      "s"
    ],
    [
      "ov",
      "ement"
    ],
    [
      " th",
      "rough"
    ],
    [
      " incre",
      "ased"
    ],
    [
      "echn",
      "ology"
    ],
    [
      " m",
      "il"
    ],
    [
      " re",
      "f"
    ],
    [
      "ur",
      "r"
    ],
    [
      "du",
      "st"
    ],
    [
      " m",
      "e"
    ],
    [
      " ",
      "ent"
    ],
    [
      " l",
      "ik"
    ],
    [
      " g",
      "en"
    ],
    [
      " includ",
      "ing"
    ],
    [
      " o",
      "ld"
    ],
    [
      "ult",
      "ure"
    ],
    [
      "ar",
      "n"
    ],
    [
      "ra",
      "h"
    ],
    [
      "in",
      "es"
    ],
    [
      "c",
      "ial"
    ],
    [
      " dire",
      "ct"
    ],
    [
      "and",
      "hi"
    ],
    [
      " Al",
      "l"
    ],
    [
      "a",
      "u"
    ],
    [
      " an",
      "cient"
    ],
    [
      " rem",
      "ain"
    ],
    [
      " B",
      "i"
    ],
    [
      "eh",
      "ru"
    ],
    [
      " l",
      "ast"
    ],
    [
      " large",
      "st"
    ],
    [
      "u",
      "di"
    ],
    [
      " Ved",
      "ic"
    ],
    [
      " Dav",
      "id"
    ],
    [
      " Jo",
      "hn"
    ],
    [
      "201",
      "7"
    ],
    [
      "4",
      "5"
    ],
    [
      " B",
      "l"
    ],
    [
      " Encyclop",
      "edia"
    ],
    [
      " C",
      "ol"
    ],
    [
      " A",
      "mer"
    ],
    [
      " P",
      "ublic"
    ],
    [
      "200",
      "7"
    ],
    [
      " ग",
      "ण"
    ],
    [
      " म",
      "ध"
    ],
    [
      "य",
      "वस"
    ],
    [
      " आ",
      "र"
    ],
    [
      " ",
      "ऊ"
    ],
    [
      "श",
      "न"
    ],
    [
      " न",
      "ह"
    ],
    [
      "र",
      "ध"
    ],
    [
      " ",
      "ಶ"
    ],
    [
      "ా",
      ","
    ],
    [
      "ర",
      "క"
    ],
    [
      "హ",
      "ద"
    ],
    [
      " స",
      "ర"
    ],
    [
      "క",
      "ర"
    ],
    [
      "ర",
      "ధ"
    ],
    [
      "ర",
      "ద"
    ],
    [
      " 4",
      "0"
    ],
    [
      " ad",
      "dition"
    ],
    [
      " b",
      "ased"
    ],
    [
      " pro",
      "du"
    ],
    [
      "t",
      "al"
    ],
    [
      " are",
      "a"
    ],
    [
      "ib",
      "r"
    ],
    [
      " S",
      "e"
    ],
    [
      "N",
      "ational"
    ],
    [
      "g",
      "ov"
    ],
    [
      " Minor",
      "ities"
    ],
    [
      " G",
      "eneral"
    ],
    [
      "W",
      "orld"
    ],
    [
      " a",
      "c"
    ],
    [
      "l",
      "arge"
    ],
    [
      "large",
      "st"
    ],
    [
      " ar",
      "ch"
    ],
    [
      "n",
      "d"
    ],
    [
      " in",
      "ter"
    ],
    [
      "ent",
      "ly"
    ],
    [
      " S",
      "ik"
    ],
    [
      "r",
      "ation"
    ],
    [
      " p",
      "arliament"
    ],
    [
      " c",
      "ap"
    ],
    [
      " U",
      "S"
    ],
    [
      "ual",
      "ly"
    ],
    [
      " bec",
      "ome"
    ],
    [
      " f",
      "our"
    ],
    [
      "i",
      "ew"
    ],
    [
      "ect",
      "ed"
    ],
    [
      "et",
      "ic"
    ],
    [
      "ow",
      "ever"
    ],
    [
      " w",
      "e"
    ],
    [
      " as",
      "s"
    ],
    [
      "o",
      "in"
    ],
    [
      " p",
      "ower"
    ],
    [
      " for",
      "est"
    ],
    [
      "od",
      "s"
    ],
    [
      "t",
      "i"
    ],
    [
      " s",
      "ign"
    ],
    [
      " tex",
      "t"
    ],
    [
      " group",
      "s"
    ],
    [
      " at",
      "t"
    ],
    [
      " G",
      "andhi"
    ],
    [
      "v",
      "ent"
    ],
    [
      "9",
      "4"
    ],
    [
      " d",
      "es"
    ],
    [
      " N",
      "ehru"
    ],
    [
      " M",
      "an"
    ],
    [
      " Chin",
      "ese"
    ],
    [
      " lik",
      "e"
    ],
    [
      " m",
      "us"
    ],
    [
      "A",
      "s"
    ],
    [
      " G",
      "e"
    ],
    [
      "ich",
      "a"
    ],
    [
      "icha",
      "el"
    ],
    [
      " R",
      "othermund"
    ],
    [
      " Brit",
      "ann"
    ],
    [
      " Britann",
      "ica"
    ],
    [
      "199",
      "8"
    ],
    [
      " प",
      "श"
    ],
    [
      "ें",
      ","
    ],
    [
      "र",
      "स"
    ],
    [
      "र",
      "भ"
    ],
    [
      "ष",
      "ण"
    ],
    [
      " म",
      "न"
    ],
    [
      " प",
      "ड"
    ],
    [
      " ",
      "ओ"
    ],
    [
      " स",
      "द"
    ],
    [
      " ज",
      "ल"
    ],
    [
      " न",
      "व"
    ],
    [
      "स",
      "द"
    ],
    [
      " ",
      "ಎ"
    ],
    [
      " ",
      "ಉ"
    ],
    [
      " ಜನ",
      "ಸ"
    ],
    [
      "ವ",
      "ರ"
    ],
    [
      "ೆ",
      "ಂ"
    ],
    [
      "ం",
      ","
    ],
    [
      " మ",
      "ధ"
    ],
    [
      " జ",
      "ర"
    ],
    [
      " 196",
      "2"
    ],
    [
      " 196",
      "5"
    ],
    [
      "or",
      "ies"
    ],
    [
      "w",
      "n"
    ],
    [
      " s",
      "our"
    ],
    [
      " w",
      "ide"
    ],
    [
      "gu",
      "e"
    ],
    [
      " to",
      "tal"
    ],
    [
      " N",
      "ations"
    ],
    [
      "ibr",
      "ary"
    ],
    [
      " R",
      "el"
    ],
    [
      " O",
      "ff"
    ],
    [
      " Off",
      "ice"
    ],
    [
      " Reg",
      "ist"
    ],
    [
      " Regist",
      "r"
    ],
    [
      " Registr",
      "ar"
    ],
    [
      " Rep",
      "ort"
    ],
    [
      " b",
      "illion"
    ],
    [
      " ind",
      "epend"
    ],
    [
      "ra",
      "b"
    ],
    [
      " An",
      "d"
    ],
    [
      " Af",
      "ric"
    ],
    [
      " Afric",
      "a"
    ],
    [
      " em",
      "erg"
    ],
    [
      " m",
      "ill"
    ],
    [
      "ing",
      "s"
    ],
    [
      " her",
      "ed"
    ],
    [
      "ab",
      "l"
    ],
    [
      "edi",
      "ev"
    ],
    [
      "ediev",
      "al"
    ],
    [
      " Mugh",
      "al"
    ],
    [
      " rul",
      "e"
    ],
    [
      " r",
      "ate"
    ],
    [
      "at",
      "s"
    ],
    [
      "ic",
      "tion"
    ],
    [
      "iction",
      "ary"
    ],
    [
      " east",
      "ern"
    ],
    [
      "har",
      "at"
    ],
    [
      " sec",
      "ond"
    ],
    [
      " M",
      "o"
    ],
    [
      " w",
      "hen"
    ],
    [
      "lo",
      "y"
    ],
    [
      " w",
      "ould"
    ],
    [
      " c",
      "al"
    ],
    [
      " the",
      "se"
    ],
    [
      " h",
      "istory"
    ],
    [
      "oll",
      "owing"
    ],
    [
      "at",
      "ure"
    ],
    [
      "ect",
      "ive"
    ],
    [
      " part",
      "ic"
    ],
    [
      " l",
      "ed"
    ],
    [
      " in",
      "di"
    ],
    [
      "gen",
      "ous"
    ],
    [
      " pract",
      "ices"
    ],
    [
      " ",
      "esp"
    ],
    [
      " esp",
      "ec"
    ],
    [
      " espec",
      "ially"
    ],
    [
      " E",
      "x"
    ],
    [
      " J",
      "am"
    ],
    [
      " H",
      "imal"
    ],
    [
      " Himal",
      "ay"
    ],
    [
      "ic",
      "k"
    ],
    [
      " c",
      "our"
    ],
    [
      "ent",
      "s"
    ],
    [
      " C",
      "o"
    ],
    [
      "ar",
      "b"
    ],
    [
      " s",
      "im"
    ],
    [
      " spec",
      "ies"
    ],
    [
      "s",
      "erv"
    ],
    [
      "righ",
      "t"
    ],
    [
      "t",
      "t"
    ],
    [
      " Or",
      "gan"
    ],
    [
      "ect",
      "or"
    ],
    [
      "1",
      "00"
    ],
    [
      " develop",
      "ed"
    ],
    [
      " 200",
      "2"
    ],
    [
      " L",
      "ond"
    ],
    [
      " Lond",
      "on"
    ],
    [
      "ish",
      "ing"
    ],
    [
      "8",
      "6"
    ],
    [
      "201",
      "2"
    ],
    [
      "k",
      "ar"
    ],
    [
      " [",
      "...]"
    ],
    [
      " ev",
      "en"
    ],
    [
      " ",
      "/"
    ],
    [
      " Th",
      "om"
    ],
    [
      "t",
      "ein"
    ],
    [
      "ourn",
      "al"
    ],
    [
      "ber",
      "g"
    ],
    [
      "7",
      "6"
    ],
    [
      "10",
      "7"
    ],
    [
      " अर",
      "ब"
    ],
    [
      " उ",
      "द"
    ],
    [
      " श",
      "त"
    ],
    [
      "स",
      "र"
    ],
    [
      "े",
      ","
    ],
    [
      "र",
      "श"
    ],
    [
      " द",
      "शक"
    ],
    [
      "ॉ",
      "ं"
    ],
    [
      "ध",
      "न"
    ],
    [
      "य",
      "प"
    ],
    [
      "ल",
      "र"
    ],
    [
      " जन",
      "ज"
    ],
    [
      " ",
      "೧"
    ],
    [
      " ",
      "ಈ"
    ],
    [
      "ಾ",
      "ಂ"
    ],
    [
      " ",
      "ಲ"
    ],
    [
      "ర",
      "జ"
    ],
    [
      "ం",
      "."
    ],
    [
      "గ",
      "ర"
    ],
    [
      "య",
      "క"
    ],
    [
      " అ",
      "య"
    ],
    [
      "ర",
      "భ"
    ],
    [
      " ఇ",
      "తర"
    ],
    [
      " ప",
      "ట"
    ],
    [
      "C",
      "on"
    ],
    [
      " A",
      "cc"
    ],
    [
      "cri",
      "pt"
    ],
    [
      " al",
      "ong"
    ],
    [
      "th",
      "n"
    ],
    [
      "5",
      "00"
    ],
    [
      "200",
      "5"
    ],
    [
      " P",
      "ortal"
    ],
    [
      "t",
      "hem"
    ],
    [
      " ad",
      "op"
    ],
    [
      " New",
      "s"
    ],
    [
      " 196",
      "0"
    ],
    [
      "h",
      "an"
    ],
    [
      " S",
      "um"
    ],
    [
      "or",
      "g"
    ],
    [
      "um",
      "an"
    ],
    [
      " d",
      "emoc"
    ],
    [
      "ra",
      "cy"
    ],
    [
      " Beng",
      "al"
    ],
    [
      "he",
      "ast"
    ],
    [
      "y",
      "an"
    ],
    [
      " h",
      "igh"
    ],
    [
      " e",
      "arly"
    ],
    [
      "k",
      "ed"
    ],
    [
      "om",
      "s"
    ],
    [
      " co",
      "ast"
    ],
    [
      " cult",
      "ure"
    ],
    [
      " Sik",
      "h"
    ],
    [
      " cent",
      "u"
    ],
    [
      " centu",
      "ries"
    ],
    [
      "ac",
      "y"
    ],
    [
      " p",
      "rom"
    ],
    [
      "i",
      "ol"
    ],
    [
      " d",
      "omin"
    ],
    [
      " l",
      "iter"
    ],
    [
      "as",
      "ing"
    ],
    [
      "q",
      "ual"
    ],
    [
      " n",
      "uclear"
    ],
    [
      " mil",
      "itary"
    ],
    [
      " a",
      "ir"
    ],
    [
      "f",
      "e"
    ],
    [
      " sup",
      "port"
    ],
    [
      " D",
      "ictionary"
    ],
    [
      "ist",
      "or"
    ],
    [
      " Pers",
      "ian"
    ],
    [
      "t",
      "he"
    ],
    [
      "id",
      "ence"
    ],
    [
      "an",
      "ts"
    ],
    [
      " f",
      "eat"
    ],
    [
      " st",
      "y"
    ],
    [
      " wh",
      "at"
    ],
    [
      "e",
      "ak"
    ],
    [
      "ement",
      "s"
    ],
    [
      " ag",
      "ric"
    ],
    [
      " in",
      "v"
    ],
    [
      "i",
      "ly"
    ],
    [
      " b",
      "ir"
    ],
    [
      "ro",
      "p"
    ],
    [
      " cont",
      "rol"
    ],
    [
      " ad",
      "minist"
    ],
    [
      " rit",
      "ual"
    ],
    [
      "u",
      "ch"
    ],
    [
      "en",
      "ces"
    ],
    [
      " f",
      "ar"
    ],
    [
      "m",
      "s"
    ],
    [
      " b",
      "l"
    ],
    [
      " p",
      "res"
    ],
    [
      "ic",
      "t"
    ],
    [
      " con",
      "stitution"
    ],
    [
      " D",
      "es"
    ],
    [
      " 6",
      "8"
    ],
    [
      "v",
      "ers"
    ],
    [
      " d",
      "ra"
    ],
    [
      "rib",
      "ut"
    ],
    [
      "re",
      "me"
    ],
    [
      "lo",
      "od"
    ],
    [
      " di",
      "st"
    ],
    [
      " of",
      "ten"
    ],
    [
      "en",
      "ed"
    ],
    [
      " Be",
      "fore"
    ],
    [
      "a",
      "h"
    ],
    [
      " are",
      "as"
    ],
    [
      " R",
      "es"
    ],
    [
      " R",
      "am"
    ],
    [
      " j",
      "ust"
    ],
    [
      " Ch",
      "and"
    ],
    [
      "und",
      "ament"
    ],
    [
      "rav",
      "en"
    ],
    [
      " P",
      "rad"
    ],
    [
      " Prad",
      "esh"
    ],
    [
      " p",
      "ur"
    ],
    [
      " p",
      "os"
    ],
    [
      " grow",
      "th"
    ],
    [
      "iz",
      "ation"
    ],
    [
      " im",
      "port"
    ],
    [
      "201",
      "0"
    ],
    [
      " co",
      "ok"
    ],
    [
      " w",
      "here"
    ],
    [
      "um",
      "b"
    ],
    [
      "hed",
      "ul"
    ],
    [
      " comm",
      "on"
    ],
    [
      "dit",
      "ions"
    ],
    [
      "et",
      "er"
    ],
    [
      " A",
      "d"
    ],
    [
      " 199",
      "7"
    ],
    [
      " Publ",
      "ishing"
    ],
    [
      " M",
      "ichael"
    ],
    [
      " Thom",
      "as"
    ],
    [
      " J",
      "ournal"
    ],
    [
      "20",
      "19"
    ],
    [
      "um",
      "ar"
    ],
    [
      "urv",
      "ey"
    ],
    [
      "200",
      "8"
    ],
    [
      " ",
      "$"
    ],
    [
      " जन",
      "स"
    ],
    [
      "ग",
      "त"
    ],
    [
      " पर",
      "म"
    ],
    [
      " च",
      "ल"
    ],
    [
      "़",
      "े"
    ],
    [
      " स",
      "भ"
    ],
    [
      "य",
      "म"
    ],
    [
      " क",
      "ह"
    ],
    [
      "ट",
      "न"
    ],
    [
      " अ",
      "क"
    ],
    [
      " म",
      "ई"
    ],
    [
      " ",
      "%"
    ],
    [
      " ಅ",
      "ತ"
    ],
    [
      " ",
      "ಒ"
    ],
    [
      "ಗ",
      "ರ"
    ],
    [
      "ೆ",
      "ೖ"
    ],
    [
      " ",
      "ಚ"
    ],
    [
      " ",
      "య"
    ],
    [
      "ద",
      "ర"
    ],
    [
      "న",
      "వ"
    ],
    [
      " స",
      "భ"
    ],
    [
      " )",
      ","
    ],
    [
      " Con",
      "stituent"
    ],
    [
      "o",
      "f"
    ],
    [
      " c",
      "an"
    ],
    [
      " wide",
      "ly"
    ],
    [
      "ol",
      "o"
    ],
    [
      " sub",
      "ject"
    ],
    [
      "7",
      "3"
    ],
    [
      " L",
      "ibrary"
    ],
    [
      " v",
      "ers"
    ],
    [
      " an",
      "y"
    ],
    [
      "w",
      "est"
    ],
    [
      " B",
      "h"
    ],
    [
      "land",
      "s"
    ],
    [
      " emerg",
      "ed"
    ],
    [
      " ri",
      "ver"
    ],
    [
      " th",
      "ird"
    ],
    [
      " mill",
      "enn"
    ],
    [
      "i",
      "um"
    ],
    [
      " J",
      "ain"
    ],
    [
      " p",
      "olitical"
    ],
    [
      "it",
      "ect"
    ],
    [
      " un",
      "t"
    ],
    [
      "ab",
      "ility"
    ],
    [
      " ex",
      "port"
    ],
    [
      "l",
      "am"
    ],
    [
      "ult",
      "an"
    ],
    [
      " c",
      "re"
    ],
    [
      "ef",
      "t"
    ],
    [
      " Comp",
      "any"
    ],
    [
      " f",
      "act"
    ],
    [
      " 3",
      "6"
    ],
    [
      " m",
      "iddle"
    ],
    [
      " B",
      "harat"
    ],
    [
      "ain",
      "ed"
    ],
    [
      " popul",
      "ar"
    ],
    [
      " e",
      "arliest"
    ],
    [
      "g",
      "ar"
    ],
    [
      " ar",
      "ound"
    ],
    [
      " 15",
      "00"
    ],
    [
      " to",
      "day"
    ],
    [
      " t",
      "imes"
    ],
    [
      " f",
      "i"
    ],
    [
      " m",
      "ay"
    ],
    [
      "igh",
      "t"
    ],
    [
      " r",
      "ange"
    ],
    [
      " th",
      "ose"
    ],
    [
      " cent",
      "ral"
    ],
    [
      " ",
      "ge"
    ],
    [
      " caus",
      "ed"
    ],
    [
      " B",
      "r"
    ],
    [
      "ay",
      "s"
    ],
    [
      " Al",
      "though"
    ],
    [
      " indi",
      "genous"
    ],
    [
      "oc",
      "al"
    ],
    [
      "at",
      "ic"
    ],
    [
      " t",
      "ri"
    ],
    [
      "og",
      "n"
    ],
    [
      " long",
      "er"
    ],
    [
      "eal",
      "th"
    ],
    [
      " A",
      "fter"
    ],
    [
      "p",
      "tion"
    ],
    [
      "c",
      "ent"
    ],
    [
      " s",
      "erved"
    ],
    [
      " st",
      "ates"
    ],
    [
      " r",
      "ural"
    ],
    [
      " app",
      "ro"
    ],
    [
      " con",
      "stitut"
    ],
    [
      "ak",
      "es"
    ],
    [
      " p",
      "ar"
    ],
    [
      "c",
      "an"
    ],
    [
      " includ",
      "e"
    ],
    [
      " 4",
      "3"
    ],
    [
      "3",
      "9"
    ],
    [
      "C",
      "N"
    ],
    [
      "J",
      "P"
    ],
    [
      "gen",
      "cy"
    ],
    [
      "m",
      "on"
    ],
    [
      " th",
      "ree"
    ],
    [
      " N",
      "uclear"
    ],
    [
      " s",
      "ector"
    ],
    [
      "201",
      "3"
    ],
    [
      "i",
      "qu"
    ],
    [
      "200",
      "1"
    ],
    [
      " 197",
      "0"
    ],
    [
      "amil",
      "ies"
    ],
    [
      " S",
      "an"
    ],
    [
      " im",
      "p"
    ],
    [
      "o",
      "ol"
    ],
    [
      " tradition",
      "al"
    ],
    [
      "m",
      "ost"
    ],
    [
      "c",
      "ise"
    ],
    [
      "t",
      "on"
    ],
    [
      " C",
      "aste"
    ],
    [
      "udi",
      "es"
    ],
    [
      " B",
      "ank"
    ],
    [
      "7",
      "1"
    ],
    [
      "201",
      "5"
    ],
    [
      "3",
      "17"
    ],
    [
      " 5",
      "4"
    ],
    [
      "it",
      "z"
    ],
    [
      " R",
      "obb"
    ],
    [
      "et",
      "on"
    ],
    [
      " K",
      "ulke"
    ],
    [
      " ",
      "78"
    ],
    [
      "As",
      "her"
    ],
    [
      "201",
      "6"
    ],
    [
      " Amer",
      "ic"
    ],
    [
      " P",
      "olicy"
    ],
    [
      " V",
      "ol"
    ],
    [
      " Sp",
      "ring"
    ],
    [
      " Spring",
      "er"
    ],
    [
      " Ec",
      "onomy"
    ],
    [
      " Public",
      "ations"
    ],
    [
      " F",
      "ood"
    ],
    [
      "19",
      "47"
    ],
    [
      " ",
      "ऑ"
    ],
    [
      " ज",
      "ब"
    ],
    [
      " उ",
      "नक"
    ],
    [
      "त",
      "न"
    ],
    [
      "व",
      "श"
    ],
    [
      " ग",
      "ई"
    ],
    [
      "़",
      "ि"
    ],
    [
      "ी",
      ","
    ],
    [
      " न",
      "द"
    ],
    [
      " ओ",
      "र"
    ],
    [
      " आ",
      "न"
    ],
    [
      "र",
      "प"
    ],
    [
      "र",
      "ह"
    ],
    [
      "ज",
      "प"
    ],
    [
      " CITEREFS",
      "ingh"
    ],
    [
      " CITEREFS",
      "tein"
    ],
    [
      " ",
      "ಗ"
    ],
    [
      "೦",
      "೦"
    ],
    [
      " ಆ",
      "ರ"
    ],
    [
      "ಯ",
      "ವ"
    ],
    [
      " ವ",
      "ರ"
    ],
    [
      "್",
      "‌"
    ],
    [
      "ద",
      "ట"
    ],
    [
      "ే",
      "ం"
    ],
    [
      " ఉ",
      "త"
    ],
    [
      " త",
      "ర"
    ],
    [
      "వ",
      "ల"
    ],
    [
      "్",
      ","
    ],
    [
      "గ",
      "ల"
    ],
    [
      " ప",
      "ద"
    ],
    [
      "%",
      ","
    ],
    [
      "%",
      "."
    ],
    [
      " Acc",
      "ording"
    ],
    [
      " un",
      "ion"
    ],
    [
      " D",
      "i"
    ],
    [
      "thn",
      "olo"
    ],
    [
      "thnolo",
      "gue"
    ],
    [
      "ri",
      "st"
    ],
    [
      " b",
      "ord"
    ],
    [
      " adop",
      "ted"
    ],
    [
      "ol",
      "per"
    ],
    [
      "olper",
      "t"
    ],
    [
      " Langua",
      "ges"
    ],
    [
      "ect",
      "s"
    ],
    [
      " w",
      "eb"
    ],
    [
      "in",
      "i"
    ],
    [
      " Pro",
      "g"
    ],
    [
      "5",
      "9"
    ],
    [
      "B",
      "C"
    ],
    [
      " A",
      "rab"
    ],
    [
      "l",
      "ad"
    ],
    [
      " n",
      "ear"
    ],
    [
      " 5",
      "5"
    ],
    [
      " g",
      "ra"
    ],
    [
      "al",
      "ley"
    ],
    [
      " millenn",
      "ium"
    ],
    [
      " 1",
      "200"
    ],
    [
      " with",
      "in"
    ],
    [
      "itect",
      "ure"
    ],
    [
      " est",
      "abl"
    ],
    [
      "is",
      "hed"
    ],
    [
      " res",
      "ult"
    ],
    [
      " l",
      "eft"
    ],
    [
      "olog",
      "ical"
    ],
    [
      " m",
      "ovement"
    ],
    [
      "ed",
      "eral"
    ],
    [
      " parliament",
      "ary"
    ],
    [
      "6",
      "4"
    ],
    [
      " n",
      "e"
    ],
    [
      " p",
      "oll"
    ],
    [
      "io",
      "div"
    ],
    [
      "iodiv",
      "ersity"
    ],
    [
      " C",
      "l"
    ],
    [
      " G",
      "ree"
    ],
    [
      " w",
      "ell"
    ],
    [
      " ",
      "]"
    ],
    [
      " form",
      "s"
    ],
    [
      " ",
      "z"
    ],
    [
      " The",
      "se"
    ],
    [
      "act",
      "er"
    ],
    [
      "or",
      "al"
    ],
    [
      " old",
      "est"
    ],
    [
      " ac",
      "ross"
    ],
    [
      " G",
      "anges"
    ],
    [
      " b",
      "ro"
    ],
    [
      "i",
      "ed"
    ],
    [
      " B",
      "rah"
    ],
    [
      " hered",
      "itary"
    ],
    [
      "ar",
      "e"
    ],
    [
      " W",
      "est"
    ],
    [
      "y",
      "al"
    ],
    [
      "it",
      "al"
    ],
    [
      "w",
      "ent"
    ],
    [
      "il",
      "i"
    ],
    [
      " s",
      "ch"
    ],
    [
      " s",
      "o"
    ],
    [
      "it",
      "es"
    ],
    [
      " st",
      "r"
    ],
    [
      " p",
      "ort"
    ],
    [
      " mar",
      "ket"
    ],
    [
      " main",
      "t"
    ],
    [
      " Europe",
      "an"
    ],
    [
      "ment",
      "s"
    ],
    [
      " f",
      "ollowing"
    ],
    [
      "ern",
      "al"
    ],
    [
      "op",
      "eration"
    ],
    [
      "ograph",
      "y"
    ],
    [
      "e",
      "ast"
    ],
    [
      "f",
      "t"
    ],
    [
      " o",
      "b"
    ],
    [
      " W",
      "estern"
    ],
    [
      " N",
      "ar"
    ],
    [
      "at",
      "ter"
    ],
    [
      " major",
      "ity"
    ],
    [
      "ed",
      "ic"
    ],
    [
      "u",
      "ri"
    ],
    [
      "ig",
      "er"
    ],
    [
      " elect",
      "ion"
    ],
    [
      "od",
      "y"
    ],
    [
      " f",
      "ul"
    ],
    [
      " E",
      "l"
    ],
    [
      "undament",
      "al"
    ],
    [
      "c",
      "is"
    ],
    [
      "st",
      "er"
    ],
    [
      "oc",
      "k"
    ],
    [
      "A",
      "l"
    ],
    [
      "s",
      "ide"
    ],
    [
      " cont",
      "ribut"
    ],
    [
      " S",
      "ome"
    ],
    [
      "al",
      "e"
    ],
    [
      " 6",
      "3"
    ],
    [
      " f",
      "amilies"
    ],
    [
      "i",
      "ri"
    ],
    [
      "og",
      "am"
    ],
    [
      " v",
      "ery"
    ],
    [
      " mar",
      "ri"
    ],
    [
      " tra",
      "ditions"
    ],
    [
      " Ar",
      "t"
    ],
    [
      "athemat",
      "ics"
    ],
    [
      "ord",
      "s"
    ],
    [
      " mus",
      "ic"
    ],
    [
      "In",
      "dian"
    ],
    [
      " I",
      "d"
    ],
    [
      "am",
      "s"
    ],
    [
      "ograph",
      "ical"
    ],
    [
      " 3",
      "7"
    ],
    [
      "ific",
      "ation"
    ],
    [
      "ar",
      "ch"
    ],
    [
      "ist",
      "ed"
    ],
    [
      " T",
      "ay"
    ],
    [
      " Tay",
      "l"
    ],
    [
      " Tayl",
      "or"
    ],
    [
      " At",
      "l"
    ],
    [
      "7",
      "7"
    ],
    [
      "5",
      "5"
    ],
    [
      "w",
      "ell"
    ],
    [
      " W",
      "il"
    ],
    [
      " ",
      "x"
    ],
    [
      " R",
      "ow"
    ],
    [
      " part",
      "ly"
    ],
    [
      " Environment",
      "al"
    ],
    [
      "ear",
      "ch"
    ],
    [
      " St",
      "udies"
    ],
    [
      "ik",
      "sh"
    ],
    [
      "iksh",
      "it"
    ],
    [
      " Sch",
      "w"
    ],
    [
      " Schw",
      "art"
    ],
    [
      " Schwart",
      "z"
    ],
    [
      " Schwartz",
      "berg"
    ],
    [
      " S",
      "harma"
    ],
    [
      " Soc",
      "iety"
    ],
    [
      "200",
      "0"
    ],
    [
      " B",
      "usiness"
    ],
    [
      " P",
      "eople"
    ],
    [
      " C",
      "raven"
    ],
    [
      " Har",
      "le"
    ],
    [
      " Sh",
      "ort"
    ],
    [
      "K",
      "ulke"
    ],
    [
      " Cent",
      "ury"
    ],
    [
      " ",
      "।"
    ],
    [
      "े",
      "।"
    ],
    [
      "थ",
      "व"
    ],
    [
      "द",
      "ल"
    ],
    [
      "ख",
      "न"
    ],
    [
      " क",
      "म"
    ],
    [
      " इ",
      "त"
    ],
    [
      " आ",
      "द"
    ],
    [
      "व",
      "न"
    ],
    [
      "़",
      "ो"
    ],
    [
      " अल",
      "ग"
    ],
    [
      "र",
      "य"
    ],
    [
      " र",
      "क"
    ],
    [
      "फ",
      "ल"
    ],
    [
      "्",
      "‍"
    ],
    [
      " जन",
      "वर"
    ],
    [
      " सद",
      "स"
    ],
    [
      " २",
      "००"
    ],
    [
      "म",
      "क"
    ],
    [
      "ण",
      "न"
    ],
    [
      " २",
      "०"
    ],
    [
      " ग",
      "ठ"
    ],
    [
      " गठ",
      "ब"
    ],
    [
      "म",
      "त"
    ],
    [
      "थ",
      "न"
    ],
    [
      "ज",
      "र"
    ],
    [
      "स",
      "भ"
    ],
    [
      " स",
      "र"
    ],
    [
      "ಯ",
      "ಲ"
    ],
    [
      " ",
      "ತ"
    ],
    [
      " ",
      "ಧ"
    ],
    [
      "ಶ",
      "ಗಳ"
    ],
    [
      "ో",
      ","
    ],
    [
      " ఎ",
      "క"
    ],
    [
      " మ",
      "హ"
    ],
    [
      " ఇ",
      "ద"
    ],
    [
      " బ",
      "హ"
    ],
    [
      "ప",
      "ట"
    ],
    [
      " క",
      "న"
    ],
    [
      " ఏ",
      "ర"
    ],
    [
      "న",
      "మ"
    ],
    [
      " 199",
      "1"
    ],
    [
      "జ",
      "క"
    ],
    [
      " 199",
      "6"
    ],
    [
      " ర",
      "వ"
    ],
    [
      "ం",
      ":"
    ],
    [
      " f",
      "ig"
    ],
    [
      " fig",
      "ures"
    ],
    [
      " pri",
      "m"
    ],
    [
      " Ch",
      "rist"
    ],
    [
      " l",
      "iving"
    ],
    [
      " k",
      "m"
    ],
    [
      " s",
      "q"
    ],
    [
      " In",
      "form"
    ],
    [
      " Cent",
      "re"
    ],
    [
      " G",
      "ana"
    ],
    [
      " M",
      "ana"
    ],
    [
      " vers",
      "ion"
    ],
    [
      "ri",
      "ef"
    ],
    [
      "ar",
      "at"
    ],
    [
      "ru",
      "st"
    ],
    [
      "Hin",
      "di"
    ],
    [
      "a",
      "ul"
    ],
    [
      "ent",
      "h"
    ],
    [
      " comm",
      "un"
    ],
    [
      "ep",
      "art"
    ],
    [
      "epart",
      "ment"
    ],
    [
      " Soc",
      "ial"
    ],
    [
      " O",
      "ut"
    ],
    [
      "et",
      "ary"
    ],
    [
      " Rel",
      "ig"
    ],
    [
      "w",
      "w"
    ],
    [
      "in",
      "dia"
    ],
    [
      "re",
      "ed"
    ],
    [
      " B",
      "BC"
    ],
    [
      " s",
      "out"
    ],
    [
      " s",
      "har"
    ],
    [
      " I",
      "ts"
    ],
    [
      "on",
      "es"
    ],
    [
      " C",
      "ivil"
    ],
    [
      " reg",
      "ions"
    ],
    [
      "a",
      "im"
    ],
    [
      " w",
      "rit"
    ],
    [
      " M",
      "iddle"
    ],
    [
      " Is",
      "lam"
    ],
    [
      "ultan",
      "ate"
    ],
    [
      "i",
      "j"
    ],
    [
      " in",
      "stitution"
    ],
    [
      " relig",
      "ion"
    ],
    [
      " l",
      "eg"
    ],
    [
      " exp",
      "and"
    ],
    [
      "urn",
      "ed"
    ],
    [
      " c",
      "ol"
    ],
    [
      "row",
      "n"
    ],
    [
      " m",
      "ig"
    ],
    [
      "ild",
      "li"
    ],
    [
      "ildli",
      "fe"
    ],
    [
      " pro",
      "t"
    ],
    [
      " h",
      "istor"
    ],
    [
      "ur",
      "ther"
    ],
    [
      " ",
      "et"
    ],
    [
      " Gree",
      "k"
    ],
    [
      " An",
      "cient"
    ],
    [
      " e",
      "p"
    ],
    [
      "A",
      "n"
    ],
    [
      " co",
      "al"
    ],
    [
      " ab",
      "out"
    ],
    [
      " G",
      "an"
    ],
    [
      "al",
      "a"
    ],
    [
      "ak",
      "h"
    ],
    [
      " c",
      "har"
    ],
    [
      "di",
      "s"
    ],
    [
      "ry",
      "an"
    ],
    [
      " d",
      "e"
    ],
    [
      " emp",
      "loy"
    ],
    [
      " f",
      "am"
    ],
    [
      " h",
      "owever"
    ],
    [
      "emp",
      "or"
    ],
    [
      "empor",
      "ary"
    ],
    [
      " bir",
      "th"
    ],
    [
      " ro",
      "c"
    ],
    [
      "el",
      "f"
    ],
    [
      " T",
      "amil"
    ],
    [
      " tra",
      "d"
    ],
    [
      " cult",
      "ural"
    ],
    [
      " m",
      "uch"
    ],
    [
      " wh",
      "ose"
    ],
    [
      " s",
      "m"
    ],
    [
      " sign",
      "ific"
    ],
    [
      "omet",
      "imes"
    ],
    [
      " Buddh",
      "ist"
    ],
    [
      " lead",
      "ing"
    ],
    [
      " s",
      "ol"
    ],
    [
      " l",
      "ocal"
    ],
    [
      "iet",
      "ies"
    ],
    [
      "c",
      "he"
    ],
    [
      "id",
      "ent"
    ],
    [
      " cons",
      "id"
    ],
    [
      " hav",
      "ing"
    ],
    [
      "oin",
      "t"
    ],
    [
      " direct",
      "ly"
    ],
    [
      " w",
      "on"
    ],
    [
      " elect",
      "ions"
    ],
    [
      " up",
      "per"
    ],
    [
      "et",
      "s"
    ],
    [
      " Plate",
      "au"
    ],
    [
      " 3",
      "5"
    ],
    [
      " l",
      "ow"
    ],
    [
      "urr",
      "ent"
    ],
    [
      "ount",
      "ries"
    ],
    [
      "U",
      "CN"
    ],
    [
      "ang",
      "ered"
    ],
    [
      "ge",
      "st"
    ],
    [
      "olit",
      "ics"
    ],
    [
      " B",
      "JP"
    ],
    [
      " part",
      "y"
    ],
    [
      "e",
      "e"
    ],
    [
      "u",
      "e"
    ],
    [
      "end",
      "ra"
    ],
    [
      "cri",
      "b"
    ],
    [
      "du",
      "c"
    ],
    [
      " territ",
      "ory"
    ],
    [
      "rad",
      "e"
    ],
    [
      " Organ",
      "ization"
    ],
    [
      "ine",
      "ering"
    ],
    [
      "ers",
      "on"
    ],
    [
      " c",
      "ensus"
    ],
    [
      " s",
      "ame"
    ],
    [
      " st",
      "ud"
    ],
    [
      " S",
      "c"
    ],
    [
      " Ur",
      "du"
    ],
    [
      "hi",
      "p"
    ],
    [
      " H",
      "ealth"
    ],
    [
      "est",
      "s"
    ],
    [
      "ab",
      "les"
    ],
    [
      " end",
      "ogam"
    ],
    [
      " l",
      "ess"
    ],
    [
      "a",
      "il"
    ],
    [
      "u",
      "k"
    ],
    [
      "ap",
      "er"
    ],
    [
      "r",
      "as"
    ],
    [
      " M",
      "ad"
    ],
    [
      " s",
      "eries"
    ],
    [
      " d",
      "ances"
    ],
    [
      "in",
      "di"
    ],
    [
      " m",
      "et"
    ],
    [
      "0",
      "6"
    ],
    [
      " G",
      "lobal"
    ],
    [
      "\"",
      ";"
    ],
    [
      "r",
      "d"
    ],
    [
      " Wil",
      "ey"
    ],
    [
      "g",
      "ved"
    ],
    [
      "n",
      "ow"
    ],
    [
      "L",
      "udden"
    ],
    [
      " B",
      "arb"
    ],
    [
      " Barb",
      "ara"
    ],
    [
      " R",
      "o"
    ],
    [
      " P",
      "olitical"
    ],
    [
      " disput",
      "e"
    ],
    [
      "M",
      "I"
    ],
    [
      "0",
      "3"
    ],
    [
      "um",
      "e"
    ],
    [
      "10",
      "8"
    ],
    [
      " Res",
      "earch"
    ],
    [
      " ",
      "{"
    ],
    [
      " l",
      "in"
    ],
    [
      " D",
      "ikshit"
    ],
    [
      " 20",
      "00"
    ],
    [
      "T",
      "O"
    ],
    [
      " H",
      "and"
    ],
    [
      " Hand",
      "book"
    ],
    [
      " P",
      "rin"
    ],
    [
      " A",
      "g"
    ],
    [
      "y",
      "s"
    ],
    [
      " D",
      "ay"
    ],
    [
      " Con",
      "cise"
    ],
    [
      " C",
      "ather"
    ],
    [
      " Cather",
      "ine"
    ],
    [
      "9",
      "04"
    ],
    [
      " T",
      "went"
    ],
    [
      "R",
      "othermund"
    ],
    [
      " गण",
      "र"
    ],
    [
      "म",
      "ह"
    ],
    [
      " अ",
      "फ"
    ],
    [
      " ",
      "ऋ"
    ],
    [
      "क",
      "रण"
    ],
    [
      " अ",
      "स"
    ],
    [
      "भ",
      "ग"
    ],
    [
      " श",
      "हर"
    ],
    [
      "भ",
      "र"
    ],
    [
      "प",
      "क"
    ],
    [
      " ह",
      "र"
    ],
    [
      " सक",
      "त"
    ],
    [
      "म",
      "ण"
    ],
    [
      "क",
      "त"
    ],
    [
      " १९",
      "९"
    ],
    [
      " ",
      "५"
    ],
    [
      " २०",
      "१"
    ],
    [
      " सह",
      "य"
    ],
    [
      " ह",
      "थ"
    ],
    [
      "श",
      "त"
    ],
    [
      " अम",
      "र"
    ],
    [
      "tt",
      "p"
    ],
    [
      "ರ",
      "ಗಳ"
    ],
    [
      " ಅ",
      "ನ"
    ],
    [
      " ಧ",
      "ರ"
    ],
    [
      "ಿ",
      "."
    ],
    [
      "ಸ",
      "ರ"
    ],
    [
      " ",
      "ಯ"
    ],
    [
      "ಪ",
      "ತ"
    ],
    [
      " ఉ",
      "ప"
    ],
    [
      "ల",
      "య"
    ],
    [
      " గ",
      "ల"
    ],
    [
      "మ",
      "న"
    ],
    [
      " ఆ",
      "ధ"
    ],
    [
      "ొ",
      "ం"
    ],
    [
      "క",
      "ల"
    ],
    [
      "ే",
      "."
    ],
    [
      "ప",
      "డ"
    ],
    [
      " వ",
      "ర"
    ],
    [
      "వ",
      "హ"
    ],
    [
      "ష",
      "ల"
    ],
    [
      "రప",
      "త"
    ],
    [
      "య",
      "ధ"
    ],
    [
      "ీ",
      ","
    ],
    [
      "శ",
      "ప"
    ],
    [
      " ",
      "ట"
    ],
    [
      "జ",
      "న"
    ],
    [
      " న",
      "డ"
    ],
    [
      "ీ",
      ";"
    ],
    [
      " 1",
      "00"
    ],
    [
      " D",
      "ev"
    ],
    [
      " s",
      "cript"
    ],
    [
      " territ",
      "ories"
    ],
    [
      " o",
      "wn"
    ],
    [
      "w",
      "ide"
    ],
    [
      " ex",
      "tin"
    ],
    [
      " d",
      "eb"
    ],
    [
      "26",
      "9"
    ],
    [
      "mb",
      "ol"
    ],
    [
      " An",
      "them"
    ],
    [
      " original",
      "ly"
    ],
    [
      " Beng",
      "ali"
    ],
    [
      "f",
      "ile"
    ],
    [
      " Pro",
      "v"
    ],
    [
      "is",
      "ions"
    ],
    [
      " l",
      "inguistic"
    ],
    [
      " S",
      "im"
    ],
    [
      " Pro",
      "sp"
    ],
    [
      " Prosp",
      "ects"
    ],
    [
      " R",
      "ev"
    ],
    [
      " D",
      "epartment"
    ],
    [
      "im",
      "ated"
    ],
    [
      " ",
      "0"
    ],
    [
      " independ",
      "ence"
    ],
    [
      " democ",
      "racy"
    ],
    [
      "ang",
      "lad"
    ],
    [
      "anglad",
      "esh"
    ],
    [
      " And",
      "aman"
    ],
    [
      " hum",
      "ans"
    ],
    [
      " occup",
      "ation"
    ],
    [
      "ers",
      "e"
    ],
    [
      " V",
      "alley"
    ],
    [
      " h",
      "y"
    ],
    [
      " rec",
      "ord"
    ],
    [
      "ex",
      "ist"
    ],
    [
      " Buddh",
      "ism"
    ],
    [
      " ri",
      "se"
    ],
    [
      "up",
      "ta"
    ],
    [
      " D",
      "uring"
    ],
    [
      "er",
      "a"
    ],
    [
      " dec",
      "l"
    ],
    [
      "ou",
      "ch"
    ],
    [
      " k",
      "ing"
    ],
    [
      " S",
      "out"
    ],
    [
      " sout",
      "hern"
    ],
    [
      "ork",
      "s"
    ],
    [
      " m",
      "edieval"
    ],
    [
      "on",
      "ial"
    ],
    [
      " N",
      "ot"
    ],
    [
      " part",
      "ition"
    ],
    [
      " rep",
      "ublic"
    ],
    [
      "rat",
      "ic"
    ],
    [
      " m",
      "ult"
    ],
    [
      " soc",
      "iety"
    ],
    [
      " gre",
      "w"
    ],
    [
      " an",
      "n"
    ],
    [
      " liter",
      "acy"
    ],
    [
      "ov",
      "ert"
    ],
    [
      "overt",
      "y"
    ],
    [
      "qual",
      "ity"
    ],
    [
      " m",
      "id"
    ],
    [
      "ate",
      "ly"
    ],
    [
      " L",
      "at"
    ],
    [
      " )",
      ";"
    ],
    [
      "et",
      "ry"
    ],
    [
      " v",
      "ari"
    ],
    [
      "an",
      "ing"
    ],
    [
      " Hindu",
      "st"
    ],
    [
      " though",
      "t"
    ],
    [
      " div",
      "ersity"
    ],
    [
      " c",
      "ities"
    ],
    [
      " char",
      "acter"
    ],
    [
      " feat",
      "ures"
    ],
    [
      " v",
      "ill"
    ],
    [
      " ev",
      "idence"
    ],
    [
      " R",
      "ig"
    ],
    [
      "oc",
      "i"
    ],
    [
      "A",
      "ryan"
    ],
    [
      " s",
      "ett"
    ],
    [
      " pl",
      "ain"
    ],
    [
      "ex",
      "t"
    ],
    [
      " cal",
      "led"
    ],
    [
      " v",
      "arn"
    ],
    [
      " relig",
      "ions"
    ],
    [
      "iol",
      "ence"
    ],
    [
      " emp",
      "ire"
    ],
    [
      "ce",
      "pt"
    ],
    [
      "se",
      "qu"
    ],
    [
      "o",
      "di"
    ],
    [
      " d",
      "ev"
    ],
    [
      "en",
      "ins"
    ],
    [
      " region",
      "al"
    ],
    [
      " g",
      "ods"
    ],
    [
      "ult",
      "ural"
    ],
    [
      " d",
      "evelopment"
    ],
    [
      " signific",
      "ant"
    ],
    [
      " num",
      "b"
    ],
    [
      " numb",
      "ers"
    ],
    [
      " P",
      "h"
    ],
    [
      "e",
      "ated"
    ],
    [
      " b",
      "u"
    ],
    [
      "w",
      "ards"
    ],
    [
      " soc",
      "ieties"
    ],
    [
      "p",
      "ress"
    ],
    [
      "v",
      "en"
    ],
    [
      " p",
      "ain"
    ],
    [
      " pain",
      "t"
    ],
    [
      "it",
      "ions"
    ],
    [
      " rec",
      "ogn"
    ],
    [
      " com",
      "mer"
    ],
    [
      "u",
      "th"
    ],
    [
      "ab",
      "ly"
    ],
    [
      " f",
      "urther"
    ],
    [
      " re",
      "form"
    ],
    [
      "i",
      "e"
    ],
    [
      " s",
      "et"
    ],
    [
      "y",
      "le"
    ],
    [
      "ru",
      "ct"
    ],
    [
      " in",
      "dust"
    ],
    [
      " W",
      "ar"
    ],
    [
      "is",
      "l"
    ],
    [
      "h",
      "at"
    ],
    [
      "i",
      "ber"
    ],
    [
      " appro",
      "x"
    ],
    [
      "imate",
      "ly"
    ],
    [
      " 7",
      "0"
    ],
    [
      "a",
      "f"
    ],
    [
      " sp",
      "read"
    ],
    [
      " l",
      "ower"
    ],
    [
      "on",
      "e"
    ],
    [
      " Himalay",
      "as"
    ],
    [
      " m",
      "akes"
    ],
    [
      "ov",
      "e"
    ],
    [
      " A",
      "rav"
    ],
    [
      "al",
      "li"
    ],
    [
      " Des",
      "ert"
    ],
    [
      " c",
      "he"
    ],
    [
      "4",
      "00"
    ],
    [
      "en",
      "ced"
    ],
    [
      " m",
      "on"
    ],
    [
      " sim",
      "il"
    ],
    [
      " simil",
      "ar"
    ],
    [
      " w",
      "ill"
    ],
    [
      " p",
      "resent"
    ],
    [
      " n",
      "at"
    ],
    [
      "ib",
      "le"
    ],
    [
      "serv",
      "ation"
    ],
    [
      " he",
      "ld"
    ],
    [
      " unt",
      "il"
    ],
    [
      "ar",
      "an"
    ],
    [
      "rit",
      "s"
    ],
    [
      " 199",
      "9"
    ],
    [
      " 19",
      "49"
    ],
    [
      "emb",
      "ers"
    ],
    [
      " f",
      "undamental"
    ],
    [
      "A",
      "r"
    ],
    [
      "ous",
      "e"
    ],
    [
      " R",
      "e"
    ],
    [
      " ",
      "qu"
    ],
    [
      "9",
      "6"
    ],
    [
      " re",
      "st"
    ],
    [
      " n",
      "ation"
    ],
    [
      " M",
      "e"
    ],
    [
      " out",
      "side"
    ],
    [
      " ",
      "eng"
    ],
    [
      " r",
      "ates"
    ],
    [
      "5",
      "4"
    ],
    [
      " import",
      "ant"
    ],
    [
      "igh",
      "th"
    ],
    [
      " other",
      "s"
    ],
    [
      "ir",
      "m"
    ],
    [
      "ur",
      "d"
    ],
    [
      "c",
      "ul"
    ],
    [
      "iv",
      "al"
    ],
    [
      "ast",
      "es"
    ],
    [
      "c",
      "aste"
    ],
    [
      " Mar",
      "ri"
    ],
    [
      " sc",
      "ul"
    ],
    [
      " scul",
      "pt"
    ],
    [
      " pro",
      "b"
    ],
    [
      "ch",
      "i"
    ],
    [
      " A",
      "c"
    ],
    [
      " N",
      "at"
    ],
    [
      " mathemat",
      "ics"
    ],
    [
      " trans",
      "mit"
    ],
    [
      " transmit",
      "ted"
    ],
    [
      "ith",
      "m"
    ],
    [
      "ithm",
      "etic"
    ],
    [
      "c",
      "ov"
    ],
    [
      "o",
      "or"
    ],
    [
      "ur",
      "an"
    ],
    [
      "cc",
      "ess"
    ],
    [
      "f",
      "ul"
    ],
    [
      "l",
      "evel"
    ],
    [
      " G",
      "l"
    ],
    [
      "i",
      "er"
    ],
    [
      "l",
      "em"
    ],
    [
      " 7",
      "6"
    ],
    [
      " St",
      "ate"
    ],
    [
      " F",
      "ran"
    ],
    [
      " Fran",
      "cis"
    ],
    [
      " Atl",
      "as"
    ],
    [
      "en",
      "gu"
    ],
    [
      "9",
      "78"
    ],
    [
      " Bl",
      "ack"
    ],
    [
      "et",
      "ra"
    ],
    [
      "ch",
      "in"
    ],
    [
      "D",
      "yson"
    ],
    [
      "is",
      "on"
    ],
    [
      " 5",
      "6"
    ],
    [
      " 4",
      "8"
    ],
    [
      "M",
      "etcalf"
    ],
    [
      "ks",
      "ai"
    ],
    [
      " 1",
      "26"
    ],
    [
      "19",
      "6"
    ],
    [
      " L",
      "aw"
    ],
    [
      " Vol",
      "ume"
    ],
    [
      " ex",
      "isted"
    ],
    [
      "}",
      "}"
    ],
    [
      "07",
      "4"
    ],
    [
      " Int",
      "roduction"
    ],
    [
      " D",
      "un"
    ],
    [
      " Prin",
      "c"
    ],
    [
      " Princ",
      "eton"
    ],
    [
      "ra",
      "w"
    ],
    [
      " P",
      "er"
    ],
    [
      " P",
      "ower"
    ],
    [
      " C",
      "yn"
    ],
    [
      " Cyn",
      "th"
    ],
    [
      " Cynth",
      "ia"
    ],
    [
      " F",
      "irst"
    ],
    [
      "k",
      "er"
    ],
    [
      " B",
      "ook"
    ],
    [
      " Comp",
      "an"
    ],
    [
      "80",
      "904"
    ],
    [
      " P",
      "resent"
    ],
    [
      "20",
      "3"
    ],
    [
      "ef",
      "ence"
    ],
    [
      " T",
      "im"
    ],
    [
      "16",
      "2"
    ],
    [
      " M",
      "athematics"
    ],
    [
      " उप",
      "मह"
    ],
    [
      "त",
      "व"
    ],
    [
      " जब",
      "क"
    ],
    [
      "ल",
      "त"
    ],
    [
      " अ",
      "त"
    ],
    [
      " इ",
      "न"
    ],
    [
      "प",
      "त"
    ],
    [
      "च",
      "ल"
    ],
    [
      "न",
      "व"
    ],
    [
      " उ",
      "न"
    ],
    [
      " श",
      "क"
    ],
    [
      " त",
      "म"
    ],
    [
      " जन",
      "त"
    ],
    [
      "ट",
      "ल"
    ],
    [
      " ग",
      "त"
    ],
    [
      "व",
      "ल"
    ],
    [
      "ा",
      "-"
    ],
    [
      " १९",
      "८"
    ],
    [
      " ",
      "ऐ"
    ],
    [
      "य",
      "र"
    ],
    [
      "ए",
      "स"
    ],
    [
      "आ",
      "ई"
    ],
    [
      " CITEREF",
      "Kulke"
    ],
    [
      " CITEREFKulke",
      "Rothermund"
    ],
    [
      ":",
      "/"
    ],
    [
      ":/",
      "/"
    ],
    [
      "ಗ",
      "ಗಳ"
    ],
    [
      "ಡ",
      "ಳ"
    ],
    [
      " ರ",
      "ಲ"
    ],
    [
      " ನ",
      "ಗರ"
    ],
    [
      "ವ",
      "ಣ"
    ],
    [
      " 3",
      "2"
    ],
    [
      " ఒక",
      "ట"
    ],
    [
      "ష",
      "ణ"
    ],
    [
      " ర",
      "హద"
    ],
    [
      "య",
      "న"
    ],
    [
      "య",
      "త"
    ],
    [
      " ఇ",
      "వ"
    ],
    [
      "త",
      "మ"
    ],
    [
      "ట",
      "ణ"
    ],
    [
      "ల",
      "వ"
    ],
    [
      " ల",
      "క"
    ],
    [
      " 197",
      "1"
    ],
    [
      "థ",
      "ల"
    ],
    [
      " ర",
      "క"
    ],
    [
      "ర",
      "వ"
    ],
    [
      "న",
      "ప"
    ],
    [
      " 1",
      "21"
    ],
    [
      " ప",
      "త"
    ],
    [
      "ar",
      "v"
    ],
    [
      " ",
      "X"
    ],
    [
      " sour",
      "ces"
    ],
    [
      " g",
      "ive"
    ],
    [
      " extin",
      "ct"
    ],
    [
      " s",
      "iz"
    ],
    [
      "us",
      "e"
    ],
    [
      " disput",
      "ed"
    ],
    [
      "28",
      "7"
    ],
    [
      "2",
      "19"
    ],
    [
      "at",
      "ics"
    ],
    [
      " S",
      "y"
    ],
    [
      " b",
      "rief"
    ],
    [
      " W",
      "olpert"
    ],
    [
      " H",
      "ome"
    ],
    [
      " Gu",
      "j"
    ],
    [
      ".",
      ","
    ],
    [
      " ed",
      "ition"
    ],
    [
      "b",
      "ack"
    ],
    [
      " d",
      "ata"
    ],
    [
      "P",
      "opulation"
    ],
    [
      " 19",
      "01"
    ],
    [
      "lo",
      "ok"
    ],
    [
      " Mon",
      "etary"
    ],
    [
      " F",
      "und"
    ],
    [
      " Prog",
      "ram"
    ],
    [
      " Program",
      "me"
    ],
    [
      "N",
      "A"
    ],
    [
      "T",
      "I"
    ],
    [
      " w",
      "ww"
    ],
    [
      " 19",
      "4"
    ],
    [
      " B",
      "angladesh"
    ],
    [
      " M",
      "al"
    ],
    [
      " N",
      "ic"
    ],
    [
      "ant",
      "ed"
    ],
    [
      " Jain",
      "ism"
    ],
    [
      " Ma",
      "ury"
    ],
    [
      " ",
      "era"
    ],
    [
      "i",
      "ef"
    ],
    [
      "d",
      "oms"
    ],
    [
      " cult",
      "ures"
    ],
    [
      "re",
      "w"
    ],
    [
      " cre",
      "ated"
    ],
    [
      " s",
      "l"
    ],
    [
      " ch",
      "anges"
    ],
    [
      " ",
      "ide"
    ],
    [
      " ed",
      "uc"
    ],
    [
      " educ",
      "ation"
    ],
    [
      " f",
      "ederal"
    ],
    [
      " 7",
      "4"
    ],
    [
      " f",
      "ast"
    ],
    [
      " p",
      "overty"
    ],
    [
      " A",
      "mong"
    ],
    [
      "ot",
      "s"
    ],
    [
      " d",
      "er"
    ],
    [
      " Cl",
      "ass"
    ],
    [
      " ref",
      "er"
    ],
    [
      " N",
      "orth"
    ],
    [
      " ext",
      "ant"
    ],
    [
      " 8",
      "0"
    ],
    [
      " in",
      "it"
    ],
    [
      "ic",
      "ation"
    ],
    [
      "ap",
      "p"
    ],
    [
      "er",
      "i"
    ],
    [
      " writ",
      "ten"
    ],
    [
      " sty",
      "les"
    ],
    [
      " Af",
      "gh"
    ],
    [
      " Afgh",
      "an"
    ],
    [
      "l",
      "ing"
    ],
    [
      "ar",
      "ed"
    ],
    [
      " agric",
      "ulture"
    ],
    [
      " inv",
      "ol"
    ],
    [
      "h",
      "ya"
    ],
    [
      "ak",
      "en"
    ],
    [
      "m",
      "ill"
    ],
    [
      " system",
      "s"
    ],
    [
      " Budd",
      "ha"
    ],
    [
      "ur",
      "ed"
    ],
    [
      "ri",
      "f"
    ],
    [
      "du",
      "ct"
    ],
    [
      " l",
      "ay"
    ],
    [
      " c",
      "ould"
    ],
    [
      "in",
      "n"
    ],
    [
      "ok",
      "a"
    ],
    [
      "ens",
      "e"
    ],
    [
      "h",
      "am"
    ],
    [
      " roc",
      "k"
    ],
    [
      "v",
      "e"
    ],
    [
      " p",
      "enins"
    ],
    [
      "ul",
      "a"
    ],
    [
      "i",
      "x"
    ],
    [
      "av",
      "our"
    ],
    [
      "act",
      "ion"
    ],
    [
      "ive",
      "ly"
    ],
    [
      " cons",
      "ist"
    ],
    [
      " land",
      "s"
    ],
    [
      " grow",
      "ing"
    ],
    [
      " class",
      "es"
    ],
    [
      " sm",
      "all"
    ],
    [
      " e",
      "ff"
    ],
    [
      " s",
      "ometimes"
    ],
    [
      " trans",
      "mission"
    ],
    [
      "h",
      "or"
    ],
    [
      "w",
      "estern"
    ],
    [
      " s",
      "ultanate"
    ],
    [
      " large",
      "ly"
    ],
    [
      " v",
      "is"
    ],
    [
      " sc",
      "en"
    ],
    [
      " m",
      "en"
    ],
    [
      "cl",
      "us"
    ],
    [
      "u",
      "es"
    ],
    [
      "c",
      "ess"
    ],
    [
      "ol",
      "i"
    ],
    [
      " in",
      "st"
    ],
    [
      " sev",
      "ere"
    ],
    [
      " s",
      "urv"
    ],
    [
      " p",
      "rin"
    ],
    [
      " l",
      "im"
    ],
    [
      "us",
      "h"
    ],
    [
      " The",
      "re"
    ],
    [
      " d",
      "esp"
    ],
    [
      " in",
      "f"
    ],
    [
      " cons",
      "um"
    ],
    [
      " prov",
      "ided"
    ],
    [
      " en",
      "act"
    ],
    [
      " v",
      "ict"
    ],
    [
      " partic",
      "ip"
    ],
    [
      "o",
      "ist"
    ],
    [
      "m",
      "u"
    ],
    [
      "or",
      "ial"
    ],
    [
      "y",
      "ing"
    ],
    [
      " continu",
      "ed"
    ],
    [
      " I",
      "m"
    ],
    [
      "get",
      "ic"
    ],
    [
      "h",
      "and"
    ],
    [
      " G",
      "h"
    ],
    [
      " 4",
      "4"
    ],
    [
      "ris",
      "hn"
    ],
    [
      " influ",
      "enced"
    ],
    [
      " re",
      "t"
    ],
    [
      " end",
      "em"
    ],
    [
      "re",
      "es"
    ],
    [
      "c",
      "end"
    ],
    [
      " ex",
      "ch"
    ],
    [
      "o",
      "o"
    ],
    [
      " end",
      "angered"
    ],
    [
      " g",
      "reat"
    ],
    [
      " c",
      "ar"
    ],
    [
      " Con",
      "servation"
    ],
    [
      " 19",
      "80"
    ],
    [
      "m",
      "end"
    ],
    [
      "d",
      "ed"
    ],
    [
      " f",
      "ive"
    ],
    [
      "te",
      "en"
    ],
    [
      "a",
      "har"
    ],
    [
      " c",
      "ivil"
    ],
    [
      " E",
      "mer"
    ],
    [
      "ot",
      "ed"
    ],
    [
      " o",
      "pp"
    ],
    [
      " b",
      "ody"
    ],
    [
      "li",
      "ance"
    ],
    [
      " s",
      "ing"
    ],
    [
      " form",
      "ed"
    ],
    [
      " Bi",
      "har"
    ],
    [
      " D",
      "emoc"
    ],
    [
      "l",
      "et"
    ],
    [
      " des",
      "crib"
    ],
    [
      " for",
      "e"
    ],
    [
      " fore",
      "ign"
    ],
    [
      " m",
      "embers"
    ],
    [
      "ic",
      "le"
    ],
    [
      " dist",
      "in"
    ],
    [
      "ct",
      "ions"
    ],
    [
      "ic",
      "les"
    ],
    [
      " ex",
      "ec"
    ],
    [
      " exec",
      "ut"
    ],
    [
      " m",
      "ust"
    ],
    [
      "U",
      "n"
    ],
    [
      " pl",
      "ay"
    ],
    [
      " N",
      "on"
    ],
    [
      "cri",
      "min"
    ],
    [
      " A",
      "gency"
    ],
    [
      "us",
      "s"
    ],
    [
      "D",
      "P"
    ],
    [
      "ver",
      "age"
    ],
    [
      " g",
      "lobal"
    ],
    [
      " trad",
      "e"
    ],
    [
      " T",
      "rade"
    ],
    [
      "erv",
      "ice"
    ],
    [
      " sev",
      "eral"
    ],
    [
      "al",
      "es"
    ],
    [
      " J",
      "ap"
    ],
    [
      " Jap",
      "an"
    ],
    [
      "harma",
      "ce"
    ],
    [
      "harmace",
      "ut"
    ],
    [
      "harmaceut",
      "ical"
    ],
    [
      "ol",
      "ution"
    ],
    [
      " s",
      "ex"
    ],
    [
      " f",
      "em"
    ],
    [
      " 5",
      "3"
    ],
    [
      " or",
      "der"
    ],
    [
      " form",
      "al"
    ],
    [
      "hedul",
      "e"
    ],
    [
      " Man",
      "ip"
    ],
    [
      " F",
      "a"
    ],
    [
      " P",
      "re"
    ],
    [
      "8",
      "2"
    ],
    [
      "ist",
      "ics"
    ],
    [
      " d",
      "eat"
    ],
    [
      " deat",
      "h"
    ],
    [
      "iqu",
      "e"
    ],
    [
      "r",
      "en"
    ],
    [
      "ang",
      "ed"
    ],
    [
      " l",
      "ost"
    ],
    [
      " 5",
      "00"
    ],
    [
      " B",
      "ut"
    ],
    [
      " a",
      "chi"
    ],
    [
      "ar",
      "aj"
    ],
    [
      " m",
      "an"
    ],
    [
      " mathemat",
      "ical"
    ],
    [
      " or",
      "ally"
    ],
    [
      " mathemat",
      "ic"
    ],
    [
      " mathematic",
      "ians"
    ],
    [
      "rig",
      "onom"
    ],
    [
      " ex",
      "amp"
    ],
    [
      "ha",
      "g"
    ],
    [
      "ut",
      "t"
    ],
    [
      "ar",
      "th"
    ],
    [
      " ",
      "rig"
    ],
    [
      " rig",
      "id"
    ],
    [
      "u",
      "is"
    ],
    [
      " dis",
      "hes"
    ],
    [
      "le",
      "av"
    ],
    [
      " b",
      "read"
    ],
    [
      " V",
      "is"
    ],
    [
      " m",
      "eth"
    ],
    [
      " st",
      "rat"
    ],
    [
      "ef",
      "er"
    ],
    [
      " est",
      "imate"
    ],
    [
      "engu",
      "in"
    ],
    [
      "20",
      "24"
    ],
    [
      "ur",
      "ton"
    ],
    [
      " On",
      "e"
    ],
    [
      "etra",
      "gl"
    ],
    [
      "etragl",
      "ia"
    ],
    [
      " al",
      "though"
    ],
    [
      "gved",
      "a"
    ],
    [
      " with",
      "out"
    ],
    [
      "am",
      "a"
    ],
    [
      " to",
      "get"
    ],
    [
      " toget",
      "her"
    ],
    [
      " constitut",
      "e"
    ],
    [
      "ci",
      "p"
    ],
    [
      " endogam",
      "ous"
    ],
    [
      " W",
      "all"
    ],
    [
      " T",
      "echnology"
    ],
    [
      " W",
      "omen"
    ],
    [
      " Encyclop",
      "a"
    ],
    [
      " Encyclopa",
      "edia"
    ],
    [
      " T",
      "r"
    ],
    [
      "20",
      "20"
    ],
    [
      " 11",
      "8"
    ],
    [
      "6",
      "9"
    ],
    [
      "ber",
      "t"
    ],
    [
      "9",
      "9"
    ],
    [
      " {",
      "{"
    ],
    [
      " c",
      "ite"
    ],
    [
      " ",
      "}}"
    ],
    [
      " K",
      "umar"
    ],
    [
      " U",
      "N"
    ],
    [
      " S",
      "urvey"
    ],
    [
      " P",
      "ract"
    ],
    [
      "in",
      "a"
    ],
    [
      " Ec",
      "onom"
    ],
    [
      "ud",
      "get"
    ],
    [
      "un",
      "s"
    ],
    [
      " L",
      "iter"
    ],
    [
      "at",
      "ch"
    ],
    [
      "av",
      "in"
    ],
    [
      " S",
      "A"
    ],
    [
      " SA",
      "G"
    ],
    [
      " SAG",
      "E"
    ],
    [
      " Row",
      "land"
    ],
    [
      " Con",
      "t"
    ],
    [
      "200",
      "2"
    ],
    [
      " Al",
      "an"
    ],
    [
      " Compan",
      "ion"
    ],
    [
      " M",
      "ang"
    ],
    [
      "4",
      "15"
    ],
    [
      " Ur",
      "ban"
    ],
    [
      " Twent",
      "y"
    ],
    [
      "F",
      "irst"
    ],
    [
      "88",
      "29"
    ],
    [
      "8829",
      "05"
    ],
    [
      "11",
      "162"
    ],
    [
      "़",
      "्"
    ],
    [
      " भ",
      "र"
    ],
    [
      " त",
      "ट"
    ],
    [
      "े",
      "-"
    ],
    [
      " १",
      "८"
    ],
    [
      " ग",
      "ए"
    ],
    [
      "व",
      "ध"
    ],
    [
      " उ",
      "च"
    ],
    [
      " उ",
      "स"
    ],
    [
      "घ",
      "र"
    ],
    [
      " लग",
      "भग"
    ],
    [
      " १९",
      "७"
    ],
    [
      "त",
      "क"
    ],
    [
      " १९",
      "६"
    ],
    [
      " प",
      "त"
    ],
    [
      " ऋ",
      "त"
    ],
    [
      " सम",
      "र"
    ],
    [
      "ट",
      "र"
    ],
    [
      " अ",
      "ब"
    ],
    [
      "म",
      "र"
    ],
    [
      " म",
      "श"
    ],
    [
      " जन",
      "ग"
    ],
    [
      " जनग",
      "णन"
    ],
    [
      "ें",
      ")."
    ],
    [
      " ऑ",
      "क"
    ],
    [
      "स",
      "फ"
    ],
    [
      " P",
      "uran"
    ],
    [
      " h",
      "ttp"
    ],
    [
      "b",
      "usiness"
    ],
    [
      "ರ",
      "ಮ"
    ],
    [
      "ರ",
      "ಪ"
    ],
    [
      "ರ",
      "ವ"
    ],
    [
      "ರ",
      "ನ"
    ],
    [
      " ಪ",
      "ಶ"
    ],
    [
      "ೆ",
      ","
    ],
    [
      "ಯ",
      "ಗಳ"
    ],
    [
      " ಶ",
      "ತ"
    ],
    [
      "ವ",
      "ತ"
    ],
    [
      "ವ",
      "ನ"
    ],
    [
      " ",
      "೨"
    ],
    [
      " ಲ",
      "ಕ"
    ],
    [
      "ಲ",
      "ಸ"
    ],
    [
      "క",
      "త"
    ],
    [
      "ప",
      "ర"
    ],
    [
      " శ",
      "త"
    ],
    [
      "వ",
      "డ"
    ],
    [
      "స",
      "ర"
    ],
    [
      " అ",
      "భ"
    ],
    [
      "ే",
      ","
    ],
    [
      "ష",
      "ర"
    ],
    [
      "ు",
      ":"
    ],
    [
      "వ",
      "గ"
    ],
    [
      "ట",
      "మ"
    ],
    [
      "ద",
      "ల"
    ],
    [
      " ",
      "ఖ"
    ],
    [
      "య",
      "ల"
    ],
    [
      " ",
      "ఐ"
    ],
    [
      " ఆ",
      "క"
    ],
    [
      "ర",
      "ణ"
    ],
    [
      " మ",
      "ర"
    ],
    [
      "ధ",
      "త"
    ],
    [
      "రజ",
      "ల"
    ],
    [
      "న",
      "త"
    ],
    [
      " వ",
      "హ"
    ],
    [
      "వర",
      "ణ"
    ],
    [
      "క",
      "న"
    ],
    [
      "గ",
      "మ"
    ],
    [
      " న",
      "గర"
    ],
    [
      "7",
      "2"
    ],
    [
      " త",
      "మ"
    ],
    [
      "5",
      "2"
    ],
    [
      " ",
      ")."
    ],
    [
      "y",
      "p"
    ],
    [
      " addition",
      "al"
    ],
    [
      "angua",
      "ge"
    ],
    [
      " def",
      "ined"
    ],
    [
      " E",
      "thnologue"
    ],
    [
      " produ",
      "ced"
    ],
    [
      " Christ",
      "ian"
    ],
    [
      " or",
      "gan"
    ],
    [
      " l",
      "ists"
    ],
    [
      " wh",
      "ile"
    ],
    [
      " siz",
      "e"
    ],
    [
      "a",
      "use"
    ],
    [
      ")",
      ";"
    ],
    [
      "1",
      "47"
    ],
    [
      "9",
      "60"
    ],
    [
      ").",
      "\""
    ],
    [
      " Inform",
      "atics"
    ],
    [
      " J",
      "ana"
    ],
    [
      " R",
      "ab"
    ],
    [
      "P",
      "ro"
    ],
    [
      " C",
      "our"
    ],
    [
      "ab",
      "ad"
    ],
    [
      " m",
      "inor"
    ],
    [
      "J",
      "u"
    ],
    [
      "Ju",
      "ly"
    ],
    [
      " P",
      "aul"
    ],
    [
      " W",
      "ay"
    ],
    [
      " commun",
      "ity"
    ],
    [
      " v",
      "ia"
    ],
    [
      " D",
      "iv"
    ],
    [
      " Div",
      "ision"
    ],
    [
      " S",
      "ince"
    ],
    [
      " Out",
      "look"
    ],
    [
      " D",
      "at"
    ],
    [
      "e",
      "ff"
    ],
    [
      "H",
      "uman"
    ],
    [
      "A",
      "TI"
    ],
    [
      "c",
      "o"
    ],
    [
      " est",
      "imated"
    ],
    [
      "reed",
      "om"
    ],
    [
      " F",
      "act"
    ],
    [
      " Fact",
      "book"
    ],
    [
      " C",
      "ountry"
    ],
    [
      " w",
      "est"
    ],
    [
      " S",
      "ri"
    ],
    [
      " Nic",
      "ob"
    ],
    [
      " Nicob",
      "ar"
    ],
    [
      " Is",
      "lands"
    ],
    [
      " p",
      "red"
    ],
    [
      " high",
      "ly"
    ],
    [
      "v",
      "ing"
    ],
    [
      "E",
      "urope"
    ],
    [
      "Europe",
      "an"
    ],
    [
      " north",
      "west"
    ],
    [
      " record",
      "ed"
    ],
    [
      " E",
      "arly"
    ],
    [
      " l",
      "o"
    ],
    [
      " G",
      "upta"
    ],
    [
      " c",
      "reat"
    ],
    [
      "ouch",
      "ability"
    ],
    [
      " king",
      "doms"
    ],
    [
      " Sout",
      "heast"
    ],
    [
      " ",
      "Z"
    ],
    [
      " establ",
      "ished"
    ],
    [
      " ar",
      "m"
    ],
    [
      " d",
      "rew"
    ],
    [
      "et",
      "w"
    ],
    [
      " exp",
      "ans"
    ],
    [
      " p",
      "e"
    ],
    [
      " p",
      "ublic"
    ],
    [
      " to",
      "ok"
    ],
    [
      " independ",
      "ent"
    ],
    [
      "os",
      "s"
    ],
    [
      " mig",
      "ration"
    ],
    [
      " acc",
      "om"
    ],
    [
      " 19",
      "51"
    ],
    [
      " t",
      "echnology"
    ],
    [
      " r",
      "ed"
    ],
    [
      " red",
      "uc"
    ],
    [
      " reduc",
      "ed"
    ],
    [
      " incre",
      "asing"
    ],
    [
      "e",
      "quality"
    ],
    [
      " r",
      "ank"
    ],
    [
      "ut",
      "rit"
    ],
    [
      "utrit",
      "ion"
    ],
    [
      " poll",
      "ution"
    ],
    [
      "ot",
      "sp"
    ],
    [
      " h",
      "ab"
    ],
    [
      " hab",
      "it"
    ],
    [
      " im",
      "m"
    ],
    [
      " Lat",
      "in"
    ],
    [
      " O",
      "ld"
    ],
    [
      " ext",
      "ens"
    ],
    [
      " p",
      "o"
    ],
    [
      "li",
      "ed"
    ],
    [
      "en",
      "cy"
    ],
    [
      " me",
      "aning"
    ],
    [
      " ent",
      "ire"
    ],
    [
      " v",
      "ary"
    ],
    [
      " H",
      "owever"
    ],
    [
      " E",
      "v"
    ],
    [
      "gar",
      "h"
    ],
    [
      "om",
      "est"
    ],
    [
      "c",
      "ing"
    ],
    [
      "im",
      "als"
    ],
    [
      "p",
      "ed"
    ],
    [
      " occ",
      "ur"
    ],
    [
      "j",
      "o"
    ],
    [
      "igh",
      "ts"
    ],
    [
      " p",
      "ast"
    ],
    [
      " Afghan",
      "istan"
    ],
    [
      " ",
      "ens"
    ],
    [
      " be",
      "ing"
    ],
    [
      " gr",
      "am"
    ],
    [
      " ep",
      "ics"
    ],
    [
      " 3",
      "00"
    ],
    [
      "if",
      "ied"
    ],
    [
      " ",
      "eth"
    ],
    [
      " Ma",
      "h"
    ],
    [
      " con",
      "duct"
    ],
    [
      " in",
      "s"
    ],
    [
      " K",
      "al"
    ],
    [
      " sub",
      "sequ"
    ],
    [
      " p",
      "olicy"
    ],
    [
      " comp",
      "le"
    ],
    [
      " comple",
      "x"
    ],
    [
      "a",
      "x"
    ],
    [
      " gre",
      "ater"
    ],
    [
      "od",
      "el"
    ],
    [
      " r",
      "en"
    ],
    [
      "anag",
      "ement"
    ],
    [
      " res",
      "p"
    ],
    [
      " s",
      "ix"
    ],
    [
      " agric",
      "ultural"
    ],
    [
      " ev",
      "ery"
    ],
    [
      " v",
      "ast"
    ],
    [
      " ev",
      "ent"
    ],
    [
      " el",
      "ites"
    ],
    [
      "b",
      "y"
    ],
    [
      " c",
      "ame"
    ],
    [
      " port",
      "ion"
    ],
    [
      " penins",
      "ular"
    ],
    [
      " di",
      "d"
    ],
    [
      "w",
      "ing"
    ],
    [
      "un",
      "g"
    ],
    [
      "t",
      "o"
    ],
    [
      " p",
      "olic"
    ],
    [
      " polic",
      "ies"
    ],
    [
      "re",
      "g"
    ],
    [
      " paint",
      "ing"
    ],
    [
      "or",
      "ation"
    ],
    [
      " ad",
      "v"
    ],
    [
      " commer",
      "cial"
    ],
    [
      " a",
      "uth"
    ],
    [
      " auth",
      "or"
    ],
    [
      " pro",
      "cess"
    ],
    [
      " res",
      "our"
    ],
    [
      "eng",
      "th"
    ],
    [
      " severe",
      "ly"
    ],
    [
      "ent",
      "ial"
    ],
    [
      " int",
      "roduction"
    ],
    [
      " D",
      "is"
    ],
    [
      " reform",
      "s"
    ],
    [
      "ut",
      "ure"
    ],
    [
      " dec",
      "ad"
    ],
    [
      " decad",
      "es"
    ],
    [
      "al",
      "f"
    ],
    [
      " mar",
      "ked"
    ],
    [
      " desp",
      "ite"
    ],
    [
      "ra",
      "st"
    ],
    [
      " gen",
      "er"
    ],
    [
      " indust",
      "ry"
    ],
    [
      " leg",
      "isl"
    ],
    [
      " enact",
      "ed"
    ],
    [
      " l",
      "iber"
    ],
    [
      " s",
      "ep"
    ],
    [
      " Jam",
      "mu"
    ],
    [
      "G",
      "e"
    ],
    [
      " approx",
      "imately"
    ],
    [
      "on",
      "t"
    ],
    [
      " ab",
      "ove"
    ],
    [
      " Arav",
      "alli"
    ],
    [
      " T",
      "o"
    ],
    [
      " T",
      "har"
    ],
    [
      "p",
      "ur"
    ],
    [
      " Dec",
      "can"
    ],
    [
      " Gh",
      "ats"
    ],
    [
      " 9",
      "7"
    ],
    [
      " Himalay",
      "an"
    ],
    [
      " st",
      "e"
    ],
    [
      " bel",
      "ong"
    ],
    [
      " l",
      "atter"
    ],
    [
      " r",
      "ol"
    ],
    [
      " m",
      "oist"
    ],
    [
      "so",
      "on"
    ],
    [
      "rop",
      "ical"
    ],
    [
      " ch",
      "ange"
    ],
    [
      " a",
      "ff"
    ],
    [
      " pro",
      "ject"
    ],
    [
      " b",
      "i"
    ],
    [
      "hi",
      "b"
    ],
    [
      " th",
      "orn"
    ],
    [
      " p",
      "ass"
    ],
    [
      " 4",
      "5"
    ],
    [
      "n",
      "er"
    ],
    [
      "reat",
      "ened"
    ],
    [
      " I",
      "UCN"
    ],
    [
      " near",
      "ly"
    ],
    [
      "p",
      "en"
    ],
    [
      "b",
      "uc"
    ],
    [
      "buc",
      "k"
    ],
    [
      "et",
      "ah"
    ],
    [
      "3",
      "5"
    ],
    [
      " W",
      "ildlife"
    ],
    [
      "os",
      "p"
    ],
    [
      "vent",
      "ion"
    ],
    [
      "p",
      "art"
    ],
    [
      " J",
      "an"
    ],
    [
      " Part",
      "y"
    ],
    [
      " ",
      "right"
    ],
    [
      " lead",
      "er"
    ],
    [
      " 196",
      "7"
    ],
    [
      " G",
      "old"
    ],
    [
      " A",
      "m"
    ],
    [
      "in",
      "ated"
    ],
    [
      " coal",
      "ition"
    ],
    [
      " Chand",
      "ra"
    ],
    [
      " m",
      "ember"
    ],
    [
      " se",
      "e"
    ],
    [
      " Ra",
      "o"
    ],
    [
      " ful",
      "l"
    ],
    [
      " sh",
      "ort"
    ],
    [
      "ect",
      "ions"
    ],
    [
      " def",
      "eated"
    ],
    [
      "ak",
      "ing"
    ],
    [
      " rep",
      "resent"
    ],
    [
      "at",
      "ives"
    ],
    [
      " vill",
      "age"
    ],
    [
      "il",
      "le"
    ],
    [
      " Com",
      "mon"
    ],
    [
      " Common",
      "we"
    ],
    [
      " Commonwe",
      "al"
    ],
    [
      " Commonweal",
      "th"
    ],
    [
      " execut",
      "ive"
    ],
    [
      "w",
      "ith"
    ],
    [
      "te",
      "e"
    ],
    [
      " a",
      "ct"
    ],
    [
      " sup",
      "reme"
    ],
    [
      " cour",
      "t"
    ],
    [
      " cour",
      "ts"
    ],
    [
      " C",
      "ap"
    ],
    [
      " T",
      "er"
    ],
    [
      "as",
      "is"
    ],
    [
      "S",
      "t"
    ],
    [
      "h",
      "att"
    ],
    [
      "hatt",
      "is"
    ],
    [
      "o",
      "a"
    ],
    [
      "ak",
      "a"
    ],
    [
      " rel",
      "ations"
    ],
    [
      " bec",
      "om"
    ],
    [
      "ign",
      "ed"
    ],
    [
      " M",
      "ovement"
    ],
    [
      " cl",
      "ose"
    ],
    [
      " we",
      "ap"
    ],
    [
      "ate",
      "g"
    ],
    [
      " pos",
      "s"
    ],
    [
      " re",
      "ce"
    ],
    [
      " w",
      "a"
    ],
    [
      "erg",
      "y"
    ],
    [
      " rest",
      "ric"
    ],
    [
      " a",
      "verage"
    ],
    [
      " 199",
      "0"
    ],
    [
      " G",
      "DP"
    ],
    [
      "ris",
      "is"
    ],
    [
      " eng",
      "ineering"
    ],
    [
      " 4",
      "2"
    ],
    [
      "it",
      "s"
    ],
    [
      " ",
      "₹"
    ],
    [
      " cap",
      "ac"
    ],
    [
      " cook",
      "ing"
    ],
    [
      "6",
      "3"
    ],
    [
      "ision",
      "al"
    ],
    [
      "an",
      "cy"
    ],
    [
      "19",
      "7"
    ],
    [
      " 4",
      "1"
    ],
    [
      "iss",
      "ing"
    ],
    [
      "ir",
      "l"
    ],
    [
      " d",
      "yn"
    ],
    [
      "rom",
      "ise"
    ],
    [
      "o",
      "fficial"
    ],
    [
      "ii",
      "i"
    ],
    [
      " b",
      "it"
    ],
    [
      " bit",
      "ter"
    ],
    [
      " E",
      "ighth"
    ],
    [
      " Sc",
      "hedule"
    ],
    [
      "hedul",
      "ed"
    ],
    [
      "199",
      "2"
    ],
    [
      "R",
      "el"
    ],
    [
      " Muslim",
      "s"
    ],
    [
      " Fa",
      "ith"
    ],
    [
      " 7",
      "9"
    ],
    [
      " sch",
      "ool"
    ],
    [
      "urd",
      "en"
    ],
    [
      " 14",
      "0"
    ],
    [
      "it",
      "ation"
    ],
    [
      " un",
      "ique"
    ],
    [
      "ot",
      "t"
    ],
    [
      " there",
      "fore"
    ],
    [
      " rel",
      "ated"
    ],
    [
      "b",
      "ased"
    ],
    [
      "ous",
      "and"
    ],
    [
      " nat",
      "al"
    ],
    [
      " h",
      "ome"
    ],
    [
      " influ",
      "ences"
    ],
    [
      " b",
      "est"
    ],
    [
      " sculpt",
      "ure"
    ],
    [
      "ant",
      "a"
    ],
    [
      "ar",
      "l"
    ],
    [
      " reg",
      "ard"
    ],
    [
      " achi",
      "ev"
    ],
    [
      "r",
      "ince"
    ],
    [
      "y",
      "th"
    ],
    [
      " like",
      "ly"
    ],
    [
      "rigonom",
      "etry"
    ],
    [
      " examp",
      "le"
    ],
    [
      " the",
      "ory"
    ],
    [
      " el",
      "ements"
    ],
    [
      "ex",
      "ts"
    ],
    [
      "eter",
      "min"
    ],
    [
      " Id",
      "ent"
    ],
    [
      "ak",
      "s"
    ],
    [
      " w",
      "orn"
    ],
    [
      "e",
      "z"
    ],
    [
      "ar",
      "row"
    ],
    [
      " W",
      "hen"
    ],
    [
      "n",
      "e"
    ],
    [
      "oun",
      "g"
    ],
    [
      " cook",
      "ed"
    ],
    [
      " v",
      "e"
    ],
    [
      " ve",
      "get"
    ],
    [
      " m",
      "eat"
    ],
    [
      " e",
      "ach"
    ],
    [
      " sim",
      "p"
    ],
    [
      " simp",
      "le"
    ],
    [
      " C",
      "he"
    ],
    [
      " su",
      "ccess"
    ],
    [
      " w",
      "ords"
    ],
    [
      " 4",
      "26"
    ],
    [
      " administ",
      "ered"
    ],
    [
      "iv",
      "en"
    ],
    [
      " Ved",
      "as"
    ],
    [
      " P",
      "at"
    ],
    [
      " northern",
      "most"
    ],
    [
      " strat",
      "ification"
    ],
    [
      " G",
      "en"
    ],
    [
      " M",
      "ac"
    ],
    [
      " Mac",
      "mill"
    ],
    [
      " Macmill",
      "an"
    ],
    [
      " Ad",
      "d"
    ],
    [
      " Add",
      "ress"
    ],
    [
      " R",
      "ober"
    ],
    [
      " Rober",
      "t"
    ],
    [
      " P",
      "enguin"
    ],
    [
      "it",
      "ive"
    ],
    [
      " Jam",
      "es"
    ],
    [
      "10",
      "17"
    ],
    [
      "or",
      "ate"
    ],
    [
      " All",
      "chin"
    ],
    [
      " 6",
      "0"
    ],
    [
      " 3",
      "3"
    ],
    [
      "F",
      "isher"
    ],
    [
      "itz",
      "el"
    ],
    [
      "I",
      "t"
    ],
    [
      " al",
      "read"
    ],
    [
      " alread",
      "y"
    ],
    [
      " F",
      "lood"
    ],
    [
      " 6",
      "7"
    ],
    [
      " St",
      "ev"
    ],
    [
      "13",
      "5"
    ],
    [
      " S",
      "har"
    ],
    [
      " 199",
      "2"
    ],
    [
      " 28",
      "9"
    ],
    [
      " Col",
      "umb"
    ],
    [
      " Columb",
      "ia"
    ],
    [
      "r",
      "ated"
    ],
    [
      "op",
      "land"
    ],
    [
      " 22",
      "2"
    ],
    [
      " 2",
      "19"
    ],
    [
      "K",
      "ashmir"
    ],
    [
      " cl",
      "aim"
    ],
    [
      " P",
      "MI"
    ],
    [
      " PMI",
      "D"
    ],
    [
      "4",
      "2"
    ],
    [
      "aran",
      "th"
    ],
    [
      " G",
      "op"
    ],
    [
      " Gop",
      "al"
    ],
    [
      " Encyclop",
      "æ"
    ],
    [
      " Encyclopæ",
      "dia"
    ],
    [
      " Tr",
      "ans"
    ],
    [
      "–",
      "."
    ],
    [
      "il",
      "bert"
    ],
    [
      " 19",
      "5"
    ],
    [
      " Mar",
      "ket"
    ],
    [
      " 199",
      "3"
    ],
    [
      " B",
      "ib"
    ],
    [
      " Bib",
      "c"
    ],
    [
      " Bibc",
      "od"
    ],
    [
      " Bibcod",
      "e"
    ],
    [
      " Sp",
      "ec"
    ],
    [
      " C",
      "urrent"
    ],
    [
      "rits",
      "ch"
    ],
    [
      "1",
      "2"
    ],
    [
      " Har",
      "v"
    ],
    [
      " Harv",
      "ard"
    ],
    [
      "67",
      "4"
    ],
    [
      " L",
      "ist"
    ],
    [
      " On",
      "line"
    ],
    [
      " Americ",
      "an"
    ],
    [
      "9",
      "0"
    ],
    [
      "6",
      "91"
    ],
    [
      " hum",
      "ili"
    ],
    [
      " C",
      "oll"
    ],
    [
      "exist",
      "ence"
    ],
    [
      " pur",
      "p"
    ],
    [
      "an",
      "dit"
    ],
    [
      "ut",
      "ers"
    ],
    [
      " Ex",
      "press"
    ],
    [
      " F",
      "in"
    ],
    [
      " U",
      "K"
    ],
    [
      " T",
      "ot"
    ],
    [
      "al",
      "ys"
    ],
    [
      " P",
      "aper"
    ],
    [
      "ic",
      "he"
    ],
    [
      " E",
      "duc"
    ],
    [
      " Publ",
      "isher"
    ],
    [
      " Publisher",
      "s"
    ],
    [
      "v",
      "iew"
    ],
    [
      "C",
      "aste"
    ],
    [
      " N",
      "J"
    ],
    [
      "199",
      "4"
    ],
    [
      " s",
      "ist"
    ],
    [
      " bro",
      "ther"
    ],
    [
      "lo",
      "f"
    ],
    [
      "lof",
      "ker"
    ],
    [
      " Mus",
      "ic"
    ],
    [
      " P",
      "eter"
    ],
    [
      " An",
      "th"
    ],
    [
      "20",
      "23"
    ],
    [
      "40",
      "20"
    ],
    [
      "os",
      "h"
    ],
    [
      " G",
      "avin"
    ],
    [
      " On",
      "ew"
    ],
    [
      " Onew",
      "orld"
    ],
    [
      " U",
      "p"
    ],
    [
      " Constitution",
      "al"
    ],
    [
      " E",
      "arliest"
    ],
    [
      " p",
      "ages"
    ],
    [
      "आ",
      "ध"
    ],
    [
      " ज",
      "म"
    ],
    [
      " स",
      "ल"
    ],
    [
      "तन",
      "त"
    ],
    [
      " ब",
      "दल"
    ],
    [
      "र",
      "व"
    ],
    [
      "ष",
      "रत"
    ],
    [
      " क",
      "श"
    ],
    [
      "न",
      "त"
    ],
    [
      "ग",
      "ल"
    ],
    [
      " ",
      "+"
    ],
    [
      " आ",
      "त"
    ],
    [
      "व",
      "प"
    ],
    [
      "ु",
      "ँ"
    ],
    [
      " आ",
      "ज"
    ],
    [
      " आ",
      "कर"
    ],
    [
      "द",
      "र"
    ],
    [
      " उ",
      "भर"
    ],
    [
      "ज",
      "व"
    ],
    [
      "य",
      "द"
    ],
    [
      "ी",
      "-"
    ],
    [
      " उ",
      "सक"
    ],
    [
      " आ",
      "प"
    ],
    [
      " र",
      "ख"
    ],
    [
      " १",
      "५"
    ],
    [
      "१",
      "९"
    ],
    [
      " जल",
      "व"
    ],
    [
      " ज",
      "ह"
    ],
    [
      " ",
      "ढ"
    ],
    [
      " कह",
      "त"
    ],
    [
      "थ",
      "ल"
    ],
    [
      " न",
      "र"
    ],
    [
      "न",
      "स"
    ],
    [
      "र",
      "ज"
    ],
    [
      " ऐ",
      "स"
    ],
    [
      " सम",
      "झ"
    ],
    [
      "ी",
      ")"
    ],
    [
      "ज",
      "भ"
    ],
    [
      "क",
      "प"
    ],
    [
      " arch",
      "ive"
    ],
    [
      "78",
      "074"
    ],
    [
      " ಅ",
      "ಧ"
    ],
    [
      "ು",
      ","
    ],
    [
      "೦",
      "೧"
    ],
    [
      " ಒ",
      "ಟ"
    ],
    [
      "ಕ",
      "ತ"
    ],
    [
      "ಗ",
      "ಮ"
    ],
    [
      "ರತದ",
      "ಲ"
    ],
    [
      " ಶತ",
      "ಮ"
    ],
    [
      "ಶ",
      "ದ"
    ],
    [
      " ೧",
      "೯"
    ],
    [
      "ಲ",
      "ವ"
    ],
    [
      " ಪ",
      "ರ"
    ],
    [
      " ಸ",
      "ರ"
    ],
    [
      "ರ",
      "ಡ"
    ],
    [
      "ು",
      "ಂ"
    ],
    [
      " ಉ",
      "ತ"
    ],
    [
      "ಹ",
      "ಲ"
    ],
    [
      "ಲ",
      "ಯ"
    ],
    [
      " %",
      "),"
    ],
    [
      "00",
      "00"
    ],
    [
      " ವ",
      "ಲಸ"
    ],
    [
      "26",
      "3"
    ],
    [
      "ల",
      "మ"
    ],
    [
      "ట",
      "ర"
    ],
    [
      "మ",
      "ర"
    ],
    [
      " శ",
      "క"
    ],
    [
      "డ",
      "మ"
    ],
    [
      "స",
      "మ"
    ],
    [
      " ప",
      "శ"
    ],
    [
      " ఆ",
      "ఫ"
    ],
    [
      " ప",
      "ల"
    ],
    [
      "కర",
      "ణ"
    ],
    [
      " అ",
      "వ"
    ],
    [
      "న",
      "ట"
    ],
    [
      "వ",
      "చ"
    ],
    [
      "ద",
      "గ"
    ],
    [
      "త",
      "ల"
    ],
    [
      "ూ",
      "."
    ],
    [
      "రస",
      "త"
    ],
    [
      " ",
      "ఢ"
    ],
    [
      " ",
      "ఫ"
    ],
    [
      " త",
      "న"
    ],
    [
      " 197",
      "5"
    ],
    [
      "ప",
      "క"
    ],
    [
      "య",
      "వ"
    ],
    [
      " అ",
      "మ"
    ],
    [
      "థ",
      "క"
    ],
    [
      " ",
      "ఘ"
    ],
    [
      " చ",
      "ర"
    ],
    [
      " ప",
      "క"
    ],
    [
      "ద",
      "న"
    ],
    [
      " ",
      "డ"
    ],
    [
      "క",
      "ట"
    ],
    [
      " 8",
      "3"
    ],
    [
      "20",
      "22"
    ],
    [
      "గ",
      "ణ"
    ],
    [
      "%",
      "),"
    ],
    [
      "%",
      ")"
    ],
    [
      "న",
      "న"
    ],
    [
      "ర",
      "య"
    ],
    [
      "శ",
      "మ"
    ],
    [
      "5",
      "17"
    ],
    [
      "క",
      "మ"
    ],
    [
      "డ",
      "ల"
    ],
    [
      " పత",
      "క"
    ],
    [
      "డ",
      "ర"
    ],
    [
      " S",
      "I"
    ],
    [
      "A",
      "L"
    ],
    [
      "Con",
      "stituent"
    ],
    [
      "19",
      "50"
    ],
    [
      "I",
      "I"
    ],
    [
      " Dev",
      "anag"
    ],
    [
      " Devanag",
      "ari"
    ],
    [
      " prim",
      "ari"
    ],
    [
      " primari",
      "ly"
    ],
    [
      " h",
      "ow"
    ],
    [
      "di",
      "al"
    ],
    [
      " deb",
      "ate"
    ],
    [
      " bord",
      "ers"
    ],
    [
      "2",
      "20"
    ],
    [
      "7",
      "00"
    ],
    [
      "C",
      "ongress"
    ],
    [
      " Se",
      "e"
    ],
    [
      " Sy",
      "mbol"
    ],
    [
      " Symbol",
      "s"
    ],
    [
      "ag",
      "ore"
    ],
    [
      " an",
      "them"
    ],
    [
      "19",
      "60"
    ],
    [
      "stitution",
      "al"
    ],
    [
      "a",
      "e"
    ],
    [
      " Guj",
      "arat"
    ],
    [
      " Cour",
      "t"
    ],
    [
      "n",
      "ational"
    ],
    [
      " T",
      "rust"
    ],
    [
      "R",
      "ep"
    ],
    [
      " Minor",
      "ity"
    ],
    [
      " Ch",
      "ar"
    ],
    [
      "E",
      "thnologue"
    ],
    [
      "S",
      "ev"
    ],
    [
      "e",
      "enth"
    ],
    [
      " St",
      "at"
    ],
    [
      " Stat",
      "ist"
    ],
    [
      " Way",
      "back"
    ],
    [
      " Ma",
      "ch"
    ],
    [
      " Mach",
      "ine"
    ],
    [
      "ust",
      "om"
    ],
    [
      " web",
      "s"
    ],
    [
      " webs",
      "ite"
    ],
    [
      " En",
      "um"
    ],
    [
      " Enum",
      "eration"
    ],
    [
      "F",
      "inal"
    ],
    [
      " Dec",
      "ad"
    ],
    [
      " Decad",
      "al"
    ],
    [
      " V",
      "ari"
    ],
    [
      " Vari",
      "ation"
    ],
    [
      " Dat",
      "ab"
    ],
    [
      " Datab",
      "ase"
    ],
    [
      "ic",
      "i"
    ],
    [
      " Relig",
      "ion"
    ],
    [
      " Ch",
      "ap"
    ],
    [
      "m",
      "ary"
    ],
    [
      "9",
      "00"
    ],
    [
      " Pro",
      "file"
    ],
    [
      " popul",
      "ous"
    ],
    [
      "ce",
      "an"
    ],
    [
      " Arab",
      "ian"
    ],
    [
      " Se",
      "a"
    ],
    [
      " M",
      "yan"
    ],
    [
      " Myan",
      "mar"
    ],
    [
      " L",
      "ank"
    ],
    [
      " shar",
      "e"
    ],
    [
      " The",
      "ir"
    ],
    [
      " div",
      "erse"
    ],
    [
      " mar",
      "g"
    ],
    [
      " gra",
      "du"
    ],
    [
      " hy",
      "m"
    ],
    [
      " hym",
      "n"
    ],
    [
      " hymn",
      "s"
    ],
    [
      " D",
      "rav"
    ],
    [
      " Drav",
      "i"
    ],
    [
      " Dravi",
      "dian"
    ],
    [
      " 4",
      "00"
    ],
    [
      "l",
      "in"
    ],
    [
      " cons",
      "ol"
    ],
    [
      " consol",
      "id"
    ],
    [
      " arch",
      "itecture"
    ],
    [
      " bel",
      "ief"
    ],
    [
      "p",
      "ts"
    ],
    [
      "ast",
      "ri"
    ],
    [
      " pl",
      "ains"
    ],
    [
      " result",
      "ing"
    ],
    [
      " c",
      "os"
    ],
    [
      "ast",
      "ing"
    ],
    [
      " expans",
      "ion"
    ],
    [
      " G",
      "ra"
    ],
    [
      " C",
      "rown"
    ],
    [
      " ",
      "righ"
    ],
    [
      " righ",
      "ts"
    ],
    [
      " t",
      "echn"
    ],
    [
      " int",
      "rodu"
    ],
    [
      " introdu",
      "ced"
    ],
    [
      " influ",
      "ence"
    ],
    [
      "iol",
      "ent"
    ],
    [
      " prim",
      "ary"
    ],
    [
      " g",
      "overn"
    ],
    [
      " democ",
      "ratic"
    ],
    [
      "il",
      "ing"
    ],
    [
      "iling",
      "ual"
    ],
    [
      " cap",
      "it"
    ],
    [
      " c",
      "ost"
    ],
    [
      " disput",
      "es"
    ],
    [
      "ec",
      "onomic"
    ],
    [
      " f",
      "ac"
    ],
    [
      " ch",
      "ild"
    ],
    [
      "s",
      "ing"
    ],
    [
      " l",
      "evel"
    ],
    [
      "otsp",
      "ots"
    ],
    [
      " tradition",
      "ally"
    ],
    [
      " Class",
      "ical"
    ],
    [
      "err",
      "ed"
    ],
    [
      " c",
      "urr"
    ],
    [
      "Hin",
      "dust"
    ],
    [
      "Hindust",
      "an"
    ],
    [
      " Hindust",
      "an"
    ],
    [
      "p",
      "ass"
    ],
    [
      " M",
      "it"
    ],
    [
      " D",
      "NA"
    ],
    [
      " l",
      "ine"
    ],
    [
      " H",
      "om"
    ],
    [
      " Hom",
      "o"
    ],
    [
      " s",
      "ap"
    ],
    [
      " sap",
      "i"
    ],
    [
      " sapi",
      "ens"
    ],
    [
      " re",
      "ac"
    ],
    [
      " reac",
      "hed"
    ],
    [
      " B",
      "al"
    ],
    [
      " b",
      "ar"
    ],
    [
      " an",
      "imals"
    ],
    [
      " occur",
      "red"
    ],
    [
      " Mo",
      "hen"
    ],
    [
      " Mohen",
      "jo"
    ],
    [
      "d",
      "ar"
    ],
    [
      "dar",
      "o"
    ],
    [
      " st",
      "and"
    ],
    [
      "ann",
      "ing"
    ],
    [
      " an",
      "imal"
    ],
    [
      "eak",
      "ing"
    ],
    [
      " pl",
      "ace"
    ],
    [
      "l",
      "ement"
    ],
    [
      " fam",
      "ily"
    ],
    [
      "i",
      "ation"
    ],
    [
      " varn",
      "a"
    ],
    [
      " t",
      "e"
    ],
    [
      " s",
      "ac"
    ],
    [
      " sac",
      "rif"
    ],
    [
      " conduct",
      "ed"
    ],
    [
      "x",
      "ed"
    ],
    [
      " b",
      "ack"
    ],
    [
      " As",
      "h"
    ],
    [
      "ub",
      "s"
    ],
    [
      "in",
      "ing"
    ],
    [
      " forest",
      "s"
    ],
    [
      " t",
      "ax"
    ],
    [
      " Un",
      "der"
    ],
    [
      " ren",
      "ew"
    ],
    [
      "ot",
      "ion"
    ],
    [
      " r",
      "ather"
    ],
    [
      " ass",
      "ert"
    ],
    [
      " re",
      "fl"
    ],
    [
      "ol",
      "as"
    ],
    [
      "and",
      "y"
    ],
    [
      " P",
      "all"
    ],
    [
      " Pall",
      "av"
    ],
    [
      "ous",
      "ly"
    ],
    [
      "l",
      "ac"
    ],
    [
      " a",
      "ge"
    ],
    [
      " be",
      "y"
    ],
    [
      " bey",
      "ond"
    ],
    [
      " w",
      "ay"
    ],
    [
      "t",
      "ra"
    ],
    [
      " sh",
      "ow"
    ],
    [
      " p",
      "at"
    ],
    [
      " vari",
      "ous"
    ],
    [
      " app",
      "ear"
    ],
    [
      " sch",
      "ol"
    ],
    [
      " init",
      "i"
    ],
    [
      "ar",
      "ies"
    ],
    [
      "av",
      "al"
    ],
    [
      " event",
      "ually"
    ],
    [
      " Islam",
      "ic"
    ],
    [
      " 1",
      "20"
    ],
    [
      "id",
      "ing"
    ],
    [
      " the",
      "n"
    ],
    [
      " ag",
      "ain"
    ],
    [
      "an",
      "ced"
    ],
    [
      "ond",
      "s"
    ],
    [
      " Mugh",
      "als"
    ],
    [
      " s",
      "il"
    ],
    [
      " ent",
      "er"
    ],
    [
      "ar",
      "g"
    ],
    [
      "il",
      "es"
    ],
    [
      " Sikh",
      "s"
    ],
    [
      " ex",
      "per"
    ],
    [
      "per",
      "ial"
    ],
    [
      " l",
      "ate"
    ],
    [
      " prov",
      "in"
    ],
    [
      " comp",
      "an"
    ],
    [
      "ru",
      "cial"
    ],
    [
      "id",
      "el"
    ],
    [
      " g",
      "ood"
    ],
    [
      " 18",
      "4"
    ],
    [
      " ",
      "ess"
    ],
    [
      "st",
      "yle"
    ],
    [
      " s",
      "um"
    ],
    [
      " t",
      "reat"
    ],
    [
      " lim",
      "ited"
    ],
    [
      " s",
      "a"
    ],
    [
      "m",
      "ers"
    ],
    [
      "ruct",
      "ure"
    ],
    [
      "orn",
      "e"
    ],
    [
      "it",
      "t"
    ],
    [
      " int",
      "ernal"
    ],
    [
      " consum",
      "ption"
    ],
    [
      " c",
      "rit"
    ],
    [
      " vict",
      "ories"
    ],
    [
      " I",
      "I"
    ],
    [
      "em",
      "per"
    ],
    [
      " sec",
      "ular"
    ],
    [
      "st",
      "r"
    ],
    [
      "sp",
      "ir"
    ],
    [
      "ect",
      "on"
    ],
    [
      " pl",
      "ate"
    ],
    [
      "ral",
      "ian"
    ],
    [
      " c",
      "rust"
    ],
    [
      " E",
      "ur"
    ],
    [
      " Eur",
      "as"
    ],
    [
      " p",
      "il"
    ],
    [
      "en",
      "ing"
    ],
    [
      "ill",
      "ed"
    ],
    [
      " constitut",
      "es"
    ],
    [
      "G",
      "an"
    ],
    [
      "Gan",
      "getic"
    ],
    [
      "end",
      "s"
    ],
    [
      "pur",
      "a"
    ],
    [
      "it",
      "ud"
    ],
    [
      " ri",
      "vers"
    ],
    [
      " fl",
      "ow"
    ],
    [
      " ext",
      "reme"
    ],
    [
      " d",
      "ep"
    ],
    [
      " pre",
      "vent"
    ],
    [
      " K",
      "rishn"
    ],
    [
      "ad",
      "a"
    ],
    [
      " me",
      "as"
    ],
    [
      " cons",
      "ists"
    ],
    [
      "or",
      "es"
    ],
    [
      " v",
      "ol"
    ],
    [
      " ec",
      "onom"
    ],
    [
      " w",
      "in"
    ],
    [
      "B",
      "iodiversity"
    ],
    [
      " c",
      "ountries"
    ],
    [
      "ap",
      "s"
    ],
    [
      "l",
      "ay"
    ],
    [
      "u",
      "ous"
    ],
    [
      " ",
      "ir"
    ],
    [
      "edic",
      "ine"
    ],
    [
      "os",
      "a"
    ],
    [
      " m",
      "ass"
    ],
    [
      " l",
      "e"
    ],
    [
      "ed",
      "d"
    ],
    [
      " bl",
      "ack"
    ],
    [
      " rec",
      "ent"
    ],
    [
      " 197",
      "2"
    ],
    [
      " ad",
      "ded"
    ],
    [
      " 19",
      "88"
    ],
    [
      "G",
      "overnment"
    ],
    [
      " part",
      "ies"
    ],
    [
      " Jan",
      "ata"
    ],
    [
      " J",
      "aw"
    ],
    [
      " Jaw",
      "ahar"
    ],
    [
      " Jawahar",
      "l"
    ],
    [
      " Jawaharl",
      "al"
    ],
    [
      " ch",
      "os"
    ],
    [
      " chos",
      "en"
    ],
    [
      " P",
      "e"
    ],
    [
      "ar",
      "ation"
    ],
    [
      "end",
      "ing"
    ],
    [
      " opp",
      "osed"
    ],
    [
      " ret",
      "urned"
    ],
    [
      " o",
      "per"
    ],
    [
      "ce",
      "ed"
    ],
    [
      " F",
      "ron"
    ],
    [
      " sing",
      "le"
    ],
    [
      "y",
      "ear"
    ],
    [
      " ext",
      "ernal"
    ],
    [
      "P",
      "A"
    ],
    [
      " pro",
      "p"
    ],
    [
      "res",
      "ident"
    ],
    [
      "ut",
      "e"
    ],
    [
      "D",
      "em"
    ],
    [
      " f",
      "ram"
    ],
    [
      " fram",
      "ew"
    ],
    [
      " framew",
      "ork"
    ],
    [
      " L",
      "ong"
    ],
    [
      " ex",
      "clus"
    ],
    [
      " def",
      "ence"
    ],
    [
      " he",
      "ad"
    ],
    [
      " p",
      "an"
    ],
    [
      " comm",
      "it"
    ],
    [
      " A",
      "pp"
    ],
    [
      "c",
      "il"
    ],
    [
      " Ju",
      "st"
    ],
    [
      "as",
      "es"
    ],
    [
      " d",
      "own"
    ],
    [
      "ach",
      "al"
    ],
    [
      "ary",
      "ana"
    ],
    [
      "al",
      "ay"
    ],
    [
      "tt",
      "ar"
    ],
    [
      "ore",
      "ign"
    ],
    [
      "Al",
      "igned"
    ],
    [
      " c",
      "or"
    ],
    [
      "c",
      "ur"
    ],
    [
      " weap",
      "ons"
    ],
    [
      "it",
      "her"
    ],
    [
      " dis",
      "crimin"
    ],
    [
      "ateg",
      "ic"
    ],
    [
      "om",
      "ic"
    ],
    [
      "E",
      "c"
    ],
    [
      " d",
      "omest"
    ],
    [
      " f",
      "all"
    ],
    [
      " 199",
      "5"
    ],
    [
      " l",
      "ab"
    ],
    [
      " for",
      "ce"
    ],
    [
      "d",
      "ate"
    ],
    [
      " h",
      "ig"
    ],
    [
      " w",
      "ork"
    ],
    [
      "rib",
      "ution"
    ],
    [
      " export",
      "s"
    ],
    [
      "f",
      "ast"
    ],
    [
      " p",
      "harmaceutical"
    ],
    [
      "4",
      "4"
    ],
    [
      " capac",
      "ity"
    ],
    [
      "h",
      "ouse"
    ],
    [
      "re",
      "asing"
    ],
    [
      " m",
      "ed"
    ],
    [
      " M",
      "ed"
    ],
    [
      "rough",
      "t"
    ],
    [
      " G",
      "re"
    ],
    [
      " pre",
      "v"
    ],
    [
      "c",
      "ol"
    ],
    [
      " exp",
      "ect"
    ],
    [
      " expect",
      "ancy"
    ],
    [
      " 4",
      "9"
    ],
    [
      " 7",
      "2"
    ],
    [
      " acc",
      "ording"
    ],
    [
      " fem",
      "ale"
    ],
    [
      " m",
      "issing"
    ],
    [
      " stud",
      "y"
    ],
    [
      "s",
      "el"
    ],
    [
      "sel",
      "ective"
    ],
    [
      " pract",
      "ice"
    ],
    [
      "ol",
      "k"
    ],
    [
      " comp",
      "romise"
    ],
    [
      " int",
      "ernational"
    ],
    [
      "3",
      "51"
    ],
    [
      " continu",
      "e"
    ],
    [
      " sc",
      "heduled"
    ],
    [
      "ri",
      "ya"
    ],
    [
      " Manip",
      "uri"
    ],
    [
      "Rel",
      "ig"
    ],
    [
      "Relig",
      "ion"
    ],
    [
      " character",
      "ised"
    ],
    [
      "a",
      "fter"
    ],
    [
      " exp",
      "ress"
    ],
    [
      " per",
      "cent"
    ],
    [
      " col",
      "le"
    ],
    [
      " aff",
      "irm"
    ],
    [
      "u",
      "ber"
    ],
    [
      "uber",
      "cul"
    ],
    [
      "ubercul",
      "os"
    ],
    [
      "uberculos",
      "is"
    ],
    [
      "H",
      "O"
    ],
    [
      " di",
      "se"
    ],
    [
      " dise",
      "ase"
    ],
    [
      " bel",
      "ow"
    ],
    [
      "b",
      "ro"
    ],
    [
      " ch",
      "o"
    ],
    [
      "c",
      "hed"
    ],
    [
      " Marri",
      "age"
    ],
    [
      " div",
      "or"
    ],
    [
      " divor",
      "ce"
    ],
    [
      " marri",
      "age"
    ],
    [
      "ov",
      "er"
    ],
    [
      " b",
      "and"
    ],
    [
      "ir",
      "t"
    ],
    [
      " sty",
      "le"
    ],
    [
      " fi",
      "gu"
    ],
    [
      " figu",
      "re"
    ],
    [
      "iv",
      "a"
    ],
    [
      "or",
      "a"
    ],
    [
      "x",
      "t"
    ],
    [
      " d",
      "et"
    ],
    [
      " det",
      "ail"
    ],
    [
      "rince",
      "ly"
    ],
    [
      " Sch",
      "ool"
    ],
    [
      "y",
      "l"
    ],
    [
      " dec",
      "imal"
    ],
    [
      " n",
      "eg"
    ],
    [
      " ar",
      "ithmetic"
    ],
    [
      "ge",
      "b"
    ],
    [
      "geb",
      "ra"
    ],
    [
      " S",
      "rin"
    ],
    [
      "a",
      "z"
    ],
    [
      "em",
      "a"
    ],
    [
      " he",
      "av"
    ],
    [
      "etermin",
      "ed"
    ],
    [
      "ad",
      "em"
    ],
    [
      "d",
      "ram"
    ],
    [
      "dram",
      "as"
    ],
    [
      " T",
      "od"
    ],
    [
      "ank",
      "ar"
    ],
    [
      " P",
      "ost"
    ],
    [
      "lo",
      "th"
    ],
    [
      " s",
      "ari"
    ],
    [
      " com",
      "b"
    ],
    [
      " comb",
      "ined"
    ],
    [
      " wa",
      "ist"
    ],
    [
      " common",
      "ly"
    ],
    [
      " st",
      "ill"
    ],
    [
      " w",
      "ear"
    ],
    [
      " occ",
      "as"
    ],
    [
      " s",
      "port"
    ],
    [
      "uis",
      "ine"
    ],
    [
      "am",
      "ed"
    ],
    [
      " ge",
      "ographical"
    ],
    [
      "h",
      "o"
    ],
    [
      "ric",
      "ket"
    ],
    [
      " success",
      "ful"
    ],
    [
      "el",
      "d"
    ],
    [
      "g",
      "g"
    ],
    [
      " sh",
      "all"
    ],
    [
      " reg",
      "ards"
    ],
    [
      "iven",
      "ess"
    ],
    [
      " ritual",
      "s"
    ],
    [
      " con",
      "n"
    ],
    [
      " p",
      "oint"
    ],
    [
      "arch",
      "y"
    ],
    [
      " prob",
      "lem"
    ],
    [
      " north",
      "western"
    ],
    [
      "G",
      "ini"
    ],
    [
      " E",
      "ss"
    ],
    [
      ".\"",
      ";"
    ],
    [
      "3",
      "49"
    ],
    [
      " Gan",
      "araj"
    ],
    [
      " Ganaraj",
      "ya"
    ],
    [
      " S",
      "our"
    ],
    [
      " M",
      "anagement"
    ],
    [
      " Gu",
      "ide"
    ],
    [
      "40",
      "51"
    ],
    [
      " M",
      "er"
    ],
    [
      "ri",
      "am"
    ],
    [
      "W",
      "eb"
    ],
    [
      "Web",
      "ster"
    ],
    [
      " Ge",
      "ographical"
    ],
    [
      " E",
      "arth"
    ],
    [
      "ire",
      "ct"
    ],
    [
      " In",
      "ter"
    ],
    [
      "o",
      "hn"
    ],
    [
      " Ch",
      "ange"
    ],
    [
      " Black",
      "well"
    ],
    [
      " S",
      "eries"
    ],
    [
      "'",
      ","
    ],
    [
      " A",
      "mb"
    ],
    [
      " P",
      "etraglia"
    ],
    [
      "in",
      "y"
    ],
    [
      " c",
      "ert"
    ],
    [
      " cert",
      "ain"
    ],
    [
      "ow",
      "e"
    ],
    [
      "ac",
      "her"
    ],
    [
      " text",
      "ual"
    ],
    [
      " pres",
      "erved"
    ],
    [
      "1",
      "000"
    ],
    [
      " V",
      "ers"
    ],
    [
      "R",
      "obb"
    ],
    [
      "Hin",
      "du"
    ],
    [
      " d",
      "en"
    ],
    [
      " partic",
      "ul"
    ],
    [
      " particul",
      "arly"
    ],
    [
      " l",
      "east"
    ],
    [
      " s",
      "ams"
    ],
    [
      " sams",
      "kar"
    ],
    [
      " samskar",
      "as"
    ],
    [
      " sour",
      "ce"
    ],
    [
      "F",
      "lood"
    ],
    [
      "el",
      "en"
    ],
    [
      " M",
      "edieval"
    ],
    [
      "us",
      "ack"
    ],
    [
      "199",
      "9"
    ],
    [
      "or",
      "ing"
    ],
    [
      "26",
      "7"
    ],
    [
      "7",
      "9"
    ],
    [
      " 5",
      "2"
    ],
    [
      "26",
      "1"
    ],
    [
      "23",
      "1"
    ],
    [
      " ",
      "ult"
    ],
    [
      " 7",
      "1"
    ],
    [
      "c",
      "her"
    ],
    [
      " A",
      "ksai"
    ],
    [
      " claim",
      "ed"
    ],
    [
      "w",
      "orth"
    ],
    [
      " Americ",
      "ana"
    ],
    [
      "ast",
      "ic"
    ],
    [
      "A",
      "S"
    ],
    [
      "ay",
      "an"
    ],
    [
      "4",
      "1"
    ],
    [
      "ud",
      "y"
    ],
    [
      "10",
      "16"
    ],
    [
      "5",
      "196"
    ],
    [
      "7",
      "5"
    ],
    [
      " Ident",
      "ity"
    ],
    [
      "ep",
      "h"
    ],
    [
      " R",
      "og"
    ],
    [
      " 5",
      "8"
    ],
    [
      " S",
      "ons"
    ],
    [
      " 9",
      "8"
    ],
    [
      " 13",
      "6"
    ],
    [
      "10",
      "9"
    ],
    [
      "ar",
      "kar"
    ],
    [
      " dec",
      "ided"
    ],
    [
      " C",
      "S"
    ],
    [
      " lin",
      "k"
    ],
    [
      " M",
      "ol"
    ],
    [
      "n",
      "ar"
    ],
    [
      " B",
      "as"
    ],
    [
      "c",
      "g"
    ],
    [
      " Ch",
      "ang"
    ],
    [
      " H",
      "e"
    ],
    [
      "v",
      "est"
    ],
    [
      " Spec",
      "ies"
    ],
    [
      " D",
      "iversity"
    ],
    [
      "9",
      "81"
    ],
    [
      " Ra",
      "gh"
    ],
    [
      " In",
      "stitut"
    ],
    [
      " Institut",
      "e"
    ],
    [
      " T",
      "ritsch"
    ],
    [
      "row",
      "th"
    ],
    [
      "67",
      "7"
    ],
    [
      " t",
      "ree"
    ],
    [
      " M",
      "art"
    ],
    [
      "ara",
      "h"
    ],
    [
      " ful",
      "ly"
    ],
    [
      " Pract",
      "ice"
    ],
    [
      "4",
      "46"
    ],
    [
      "R",
      "L"
    ],
    [
      "]",
      "."
    ],
    [
      " D",
      "utt"
    ],
    [
      "B",
      "e"
    ],
    [
      " For",
      "ests"
    ],
    [
      "leav",
      "y"
    ],
    [
      "ak",
      "ar"
    ],
    [
      " P",
      "olitics"
    ],
    [
      "raw",
      "al"
    ],
    [
      " h",
      "and"
    ],
    [
      "L",
      "A"
    ],
    [
      " Ar",
      "m"
    ],
    [
      "l",
      "a"
    ],
    [
      " R",
      "edi"
    ],
    [
      " Redi",
      "ff"
    ],
    [
      " Re",
      "uters"
    ],
    [
      " Int",
      "ell"
    ],
    [
      " Intell",
      "ig"
    ],
    [
      " Intellig",
      "ence"
    ],
    [
      "M",
      "ake"
    ],
    [
      "alys",
      "is"
    ],
    [
      " Tot",
      "als"
    ],
    [
      " R",
      "os"
    ],
    [
      " s",
      "urvey"
    ],
    [
      "ar",
      "ia"
    ],
    [
      " H",
      "uman"
    ],
    [
      " M",
      "uns"
    ],
    [
      " purp",
      "os"
    ],
    [
      " purpos",
      "es"
    ],
    [
      " A",
      "y"
    ],
    [
      " J",
      "S"
    ],
    [
      " JS",
      "TO"
    ],
    [
      " JSTO",
      "R"
    ],
    [
      " M",
      "iche"
    ],
    [
      " G",
      "ro"
    ],
    [
      " P",
      "al"
    ],
    [
      " En",
      "g"
    ],
    [
      "8",
      "78"
    ],
    [
      " rank",
      "ed"
    ],
    [
      " ra",
      "ce"
    ],
    [
      " el",
      "s"
    ],
    [
      " els",
      "ew"
    ],
    [
      " elsew",
      "here"
    ],
    [
      "I",
      "C"
    ],
    [
      " p",
      "ure"
    ],
    [
      " S",
      "ec"
    ],
    [
      " R",
      "ights"
    ],
    [
      " Bl",
      "urton"
    ],
    [
      "ay",
      "as"
    ],
    [
      "ayas",
      "hi"
    ],
    [
      " o",
      "ur"
    ],
    [
      "our",
      "b"
    ],
    [
      "ourb",
      "ak"
    ],
    [
      "ourbak",
      "i"
    ],
    [
      " t",
      "rigonometry"
    ],
    [
      " ch",
      "ord"
    ],
    [
      " Cont",
      "emporary"
    ],
    [
      " Per",
      "form"
    ],
    [
      " b",
      "atter"
    ],
    [
      " C",
      "ity"
    ],
    [
      "ingh",
      "am"
    ],
    [
      " C",
      "ulture"
    ],
    [
      "0",
      "26"
    ],
    [
      " Mang",
      "o"
    ],
    [
      "?",
      "\""
    ],
    [
      "199",
      "6"
    ],
    [
      "am",
      "es"
    ],
    [
      "19",
      "70"
    ],
    [
      " Anth",
      "rop"
    ],
    [
      " Anthrop",
      "ology"
    ],
    [
      "23",
      "0"
    ],
    [
      " Y",
      "ear"
    ],
    [
      " Rev",
      "iew"
    ],
    [
      "0",
      "2"
    ],
    [
      " B",
      "udget"
    ],
    [
      " D",
      "efence"
    ],
    [
      "P",
      "andit"
    ],
    [
      " Raj",
      "at"
    ],
    [
      " Arch",
      "itecture"
    ],
    [
      "ीं",
      "।"
    ],
    [
      "त",
      "त"
    ],
    [
      " अ",
      "ह"
    ],
    [
      " अ",
      "सम"
    ],
    [
      " व",
      "न"
    ],
    [
      " आ",
      "व"
    ],
    [
      " क",
      "ल"
    ],
    [
      "म",
      "द"
    ],
    [
      " ",
      "रत"
    ],
    [
      "ल",
      "ग"
    ],
    [
      "ट",
      "क"
    ],
    [
      " घ",
      "र"
    ],
    [
      "ग",
      "ढ"
    ],
    [
      "क",
      "स"
    ],
    [
      "ह",
      "न"
    ],
    [
      " आ",
      "स"
    ],
    [
      " आ",
      "गमन"
    ],
    [
      " ऊ",
      "पर"
    ],
    [
      "न",
      "न"
    ],
    [
      "प",
      "श"
    ],
    [
      " आ",
      "क"
    ],
    [
      " १",
      "२"
    ],
    [
      " क",
      "न"
    ],
    [
      " ",
      "६"
    ],
    [
      "४",
      "७"
    ],
    [
      " न",
      "य"
    ],
    [
      "ों",
      ","
    ],
    [
      " ल",
      "ड"
    ],
    [
      "ें",
      "।"
    ],
    [
      " इस",
      "म"
    ],
    [
      "४",
      "०"
    ],
    [
      " स",
      "फल"
    ],
    [
      " ब",
      "ल"
    ],
    [
      " १९",
      "५"
    ],
    [
      " ",
      "९"
    ],
    [
      " अ",
      "वस"
    ],
    [
      " २",
      "४"
    ],
    [
      "००",
      "०"
    ],
    [
      "म",
      "प"
    ],
    [
      " क",
      "ड"
    ],
    [
      " स",
      "त"
    ],
    [
      "इ",
      "न"
    ],
    [
      " न",
      "म"
    ],
    [
      "ैं",
      ":"
    ],
    [
      " ",
      "३"
    ],
    [
      " २००",
      "४"
    ],
    [
      "ग",
      "ठ"
    ],
    [
      " आ",
      "ई"
    ],
    [
      "न",
      "ड"
    ],
    [
      "य",
      "व"
    ],
    [
      " ",
      "८"
    ],
    [
      "य",
      "सभ"
    ],
    [
      "ड",
      "ल"
    ],
    [
      "र",
      "ब"
    ],
    [
      "म",
      "ल"
    ],
    [
      " न",
      "गर"
    ],
    [
      " ह",
      "स"
    ],
    [
      " ए",
      "स"
    ],
    [
      " त",
      "रह"
    ],
    [
      "ए",
      "न"
    ],
    [
      " ब",
      "ज"
    ],
    [
      " बज",
      "ट"
    ],
    [
      "य",
      "टन"
    ],
    [
      "ज",
      "स"
    ],
    [
      " ",
      "झ"
    ],
    [
      " उप",
      "य"
    ],
    [
      " m",
      "ism"
    ],
    [
      " mism",
      "atch"
    ],
    [
      " San",
      "at"
    ],
    [
      " Sanat",
      "an"
    ],
    [
      " Ch",
      "hattis"
    ],
    [
      "र",
      "फल"
    ],
    [
      " k",
      "म"
    ],
    [
      "ತ",
      "ವ"
    ],
    [
      " ಅ",
      "ಥ"
    ],
    [
      " ಅಥ",
      "ವ"
    ],
    [
      "ಚ",
      "ದ"
    ],
    [
      "ರ",
      "ಜ"
    ],
    [
      "ಯ",
      "ದಲ"
    ],
    [
      "ಿ",
      ","
    ],
    [
      "ಕ",
      "ನ"
    ],
    [
      "ಯವ",
      "ಸ"
    ],
    [
      " ಉ",
      "ಗಮ"
    ],
    [
      "ಯ",
      "ಮ"
    ],
    [
      " ಆ",
      "ಡಳ"
    ],
    [
      "ನ",
      "ದ"
    ],
    [
      "ಷ",
      "ರ"
    ],
    [
      "ಜ",
      "ನ"
    ],
    [
      "ಸ",
      "ಲ"
    ],
    [
      "ಖ",
      "ನ"
    ],
    [
      "ೂ",
      "."
    ],
    [
      " ಎ",
      "ರಡ"
    ],
    [
      " ಪ",
      "ಡ"
    ],
    [
      "ಲ",
      "ರ"
    ],
    [
      "ೇ",
      "ಂ"
    ],
    [
      " ಅ",
      "ಮ"
    ],
    [
      "ಣ",
      "ತ"
    ],
    [
      "ಿ",
      ")"
    ],
    [
      "ಸ",
      "ಭ"
    ],
    [
      " ఉప",
      "ఖ"
    ],
    [
      "ల",
      "స"
    ],
    [
      "\"",
      ","
    ],
    [
      " \"",
      "."
    ],
    [
      "ీ",
      "."
    ],
    [
      "చ",
      "బడ"
    ],
    [
      "ళ",
      "ల"
    ],
    [
      " గ",
      "ణ"
    ],
    [
      "డ",
      "వ"
    ],
    [
      " స",
      "హ"
    ],
    [
      " 197",
      "7"
    ],
    [
      " 197",
      "4"
    ],
    [
      "వహ",
      "ణ"
    ],
    [
      "ర",
      "ల"
    ],
    [
      "స",
      "భ"
    ],
    [
      "ీ",
      "ం"
    ],
    [
      "మ",
      "ల"
    ],
    [
      "ి",
      ":"
    ],
    [
      "ఆ",
      "ర"
    ],
    [
      " త",
      "క"
    ],
    [
      "రమ",
      "ల"
    ],
    [
      "4",
      "22"
    ],
    [
      " అ",
      "క"
    ],
    [
      " 8",
      "2"
    ],
    [
      " 7",
      "5"
    ],
    [
      " జన",
      "గణ"
    ],
    [
      "3",
      "6"
    ],
    [
      "మ",
      "ద"
    ],
    [
      "న",
      "డ"
    ],
    [
      " ఇ",
      "స"
    ],
    [
      "మ",
      "త"
    ],
    [
      "చ",
      "న"
    ],
    [
      " మ",
      "నద"
    ],
    [
      "ట",
      "క"
    ],
    [
      " ఆ",
      "హ"
    ],
    [
      "ట",
      "ల"
    ],
    [
      " ఒ",
      "ల"
    ],
    [
      " ",
      "="
    ],
    [
      " \"",
      "["
    ],
    [
      " \"[",
      "...]"
    ],
    [
      "A",
      "ss"
    ],
    [
      " Di",
      "ffer"
    ],
    [
      " differ",
      "ing"
    ],
    [
      " term",
      "s"
    ],
    [
      "l",
      "anguage"
    ],
    [
      "dial",
      "ect"
    ],
    [
      " group",
      "ed"
    ],
    [
      " organ",
      "isation"
    ],
    [
      " world",
      "wide"
    ],
    [
      " bec",
      "ause"
    ],
    [
      "26",
      "0"
    ],
    [
      "0",
      "60"
    ],
    [
      "1",
      "81"
    ],
    [
      "9",
      "73"
    ],
    [
      "19",
      "0"
    ],
    [
      " not",
      "ation"
    ],
    [
      " Rab",
      "ind"
    ],
    [
      " Rabind",
      "ran"
    ],
    [
      " Rabindran",
      "ath"
    ],
    [
      " T",
      "agore"
    ],
    [
      "J",
      "ana"
    ],
    [
      " CITEREF",
      "W"
    ],
    [
      "Pro",
      "file"
    ],
    [
      "Con",
      "stitutional"
    ],
    [
      " Prov",
      "isions"
    ],
    [
      " Rel",
      "ated"
    ],
    [
      "ear",
      "n"
    ],
    [
      " do",
      "es"
    ],
    [
      " A",
      "h"
    ],
    [
      " Ah",
      "m"
    ],
    [
      "Rep",
      "ort"
    ],
    [
      " minor",
      "ities"
    ],
    [
      " Char",
      "les"
    ],
    [
      " ed",
      "s"
    ],
    [
      "Sev",
      "ent"
    ],
    [
      "Sevent",
      "eenth"
    ],
    [
      " Sum",
      "mar"
    ],
    [
      " Summar",
      "ies"
    ],
    [
      " ",
      "−"
    ],
    [
      "c",
      "ome"
    ],
    [
      "ici",
      "ent"
    ],
    [
      "R",
      "ATI"
    ],
    [
      "C",
      "ensus"
    ],
    [
      "G",
      "lobal"
    ],
    [
      "C",
      "I"
    ],
    [
      " O",
      "cean"
    ],
    [
      " B",
      "ay"
    ],
    [
      " N",
      "ep"
    ],
    [
      " Bh",
      "ut"
    ],
    [
      " bord",
      "er"
    ],
    [
      " Ind",
      "ones"
    ],
    [
      " Indones",
      "ia"
    ],
    [
      "M",
      "odern"
    ],
    [
      " pred",
      "omin"
    ],
    [
      " is",
      "ol"
    ],
    [
      " h",
      "un"
    ],
    [
      " marg",
      "ins"
    ],
    [
      " b",
      "as"
    ],
    [
      " bas",
      "in"
    ],
    [
      " gradu",
      "ally"
    ],
    [
      " Civil",
      "isation"
    ],
    [
      " di",
      "ff"
    ],
    [
      " diff",
      "us"
    ],
    [
      " sup",
      "pl"
    ],
    [
      " ar",
      "is"
    ],
    [
      "cl",
      "aim"
    ],
    [
      " hered",
      "ity"
    ],
    [
      " g",
      "av"
    ],
    [
      " gav",
      "e"
    ],
    [
      " lo",
      "ose"
    ],
    [
      " Maury",
      "a"
    ],
    [
      "i",
      "res"
    ],
    [
      "ri",
      "sh"
    ],
    [
      "iv",
      "ity"
    ],
    [
      " arm",
      "ies"
    ],
    [
      " over",
      "ran"
    ],
    [
      "etw",
      "orks"
    ],
    [
      " V",
      "ij"
    ],
    [
      " Vij",
      "ay"
    ],
    [
      " comp",
      "os"
    ],
    [
      " Sikh",
      "ism"
    ],
    [
      " r",
      "ich"
    ],
    [
      " expand",
      "ing"
    ],
    [
      " t",
      "urned"
    ],
    [
      " col",
      "onial"
    ],
    [
      " s",
      "ov"
    ],
    [
      " sov",
      "ere"
    ],
    [
      " sovere",
      "ign"
    ],
    [
      " sovereign",
      "ty"
    ],
    [
      " 18",
      "5"
    ],
    [
      " sl",
      "ow"
    ],
    [
      " ide",
      "as"
    ],
    [
      " national",
      "ist"
    ],
    [
      " non",
      "v"
    ],
    [
      "cal",
      "e"
    ],
    [
      " l",
      "oss"
    ],
    [
      " accom",
      "p"
    ],
    [
      " accomp",
      "ani"
    ],
    [
      " accompani",
      "ed"
    ],
    [
      " mult",
      "i"
    ],
    [
      " 36",
      "1"
    ],
    [
      " n",
      "om"
    ],
    [
      " capit",
      "a"
    ],
    [
      "row",
      "ing"
    ],
    [
      "form",
      "ation"
    ],
    [
      " in",
      "equality"
    ],
    [
      " exp",
      "en"
    ],
    [
      " expen",
      "dit"
    ],
    [
      " expendit",
      "ure"
    ],
    [
      "b",
      "our"
    ],
    [
      "ol",
      "ved"
    ],
    [
      "all",
      "en"
    ],
    [
      " g",
      "end"
    ],
    [
      "al",
      "n"
    ],
    [
      "aln",
      "utrition"
    ],
    [
      " level",
      "s"
    ],
    [
      "eg",
      "a"
    ],
    [
      "ega",
      "div"
    ],
    [
      "egadiv",
      "erse"
    ],
    [
      " b",
      "iodiversity"
    ],
    [
      " w",
      "ildlife"
    ],
    [
      " support",
      "ed"
    ],
    [
      " prot",
      "ected"
    ],
    [
      "edi",
      "ately"
    ],
    [
      " refer",
      "ence"
    ],
    [
      "re",
      "t"
    ],
    [
      " R",
      "iv"
    ],
    [
      " Riv",
      "er"
    ],
    [
      "ch",
      "a"
    ],
    [
      "em",
      "en"
    ],
    [
      " S",
      "ind"
    ],
    [
      "'",
      "."
    ],
    [
      "oun",
      "ced"
    ],
    [
      " m",
      "ent"
    ],
    [
      " ment",
      "ion"
    ],
    [
      " ep",
      "ic"
    ],
    [
      " g",
      "ained"
    ],
    [
      " curr",
      "ency"
    ],
    [
      "pass",
      "ing"
    ],
    [
      "H",
      "istory"
    ],
    [
      "An",
      "cient"
    ],
    [
      "o",
      "ch"
    ],
    [
      "ri",
      "al"
    ],
    [
      " an",
      "at"
    ],
    [
      " anat",
      "om"
    ],
    [
      "el",
      "i"
    ],
    [
      "h",
      "ood"
    ],
    [
      "il",
      "s"
    ],
    [
      " Ev",
      "idence"
    ],
    [
      " Har",
      "app"
    ],
    [
      "av",
      "i"
    ],
    [
      " includ",
      "ed"
    ],
    [
      " se",
      "als"
    ],
    [
      " w",
      "orks"
    ],
    [
      " ar",
      "ts"
    ],
    [
      " c",
      "ra"
    ],
    [
      " p",
      "ot"
    ],
    [
      " to",
      "wn"
    ],
    [
      " ass",
      "oci"
    ],
    [
      "sp",
      "eaking"
    ],
    [
      " s",
      "w"
    ],
    [
      " ",
      "iron"
    ],
    [
      " im",
      "pl"
    ],
    [
      " d",
      "ri"
    ],
    [
      " creat",
      "ing"
    ],
    [
      " bro",
      "ad"
    ],
    [
      " part",
      "s"
    ],
    [
      "y",
      "i"
    ],
    [
      " (",
      "'"
    ],
    [
      " ch",
      "ap"
    ],
    [
      "t",
      "ers"
    ],
    [
      " Ma",
      "ha"
    ],
    [
      "b",
      "ha"
    ],
    [
      "r",
      "ata"
    ],
    [
      " or",
      "al"
    ],
    [
      " st",
      "ory"
    ],
    [
      " story",
      "t"
    ],
    [
      " storyt",
      "ell"
    ],
    [
      " storytell",
      "ing"
    ],
    [
      "p",
      "ic"
    ],
    [
      " cont",
      "emporary"
    ],
    [
      " urban",
      "isation"
    ],
    [
      " t",
      "aken"
    ],
    [
      " for",
      "t"
    ],
    [
      " fort",
      "ified"
    ],
    [
      " B",
      "o"
    ],
    [
      " fi",
      "xed"
    ],
    [
      " Ch",
      "ron"
    ],
    [
      " be",
      "g"
    ],
    [
      " Ash",
      "oka"
    ],
    [
      "c",
      "a"
    ],
    [
      " F",
      "ollowing"
    ],
    [
      " con",
      "qu"
    ],
    [
      " conqu",
      "est"
    ],
    [
      "er",
      "ous"
    ],
    [
      " ed",
      "ic"
    ],
    [
      " edic",
      "ts"
    ],
    [
      " through",
      "out"
    ],
    [
      " se",
      "en"
    ],
    [
      "B",
      "y"
    ],
    [
      " administ",
      "ration"
    ],
    [
      " Pl",
      "ain"
    ],
    [
      " dev",
      "otion"
    ],
    [
      " its",
      "elf"
    ],
    [
      " rul",
      "ed"
    ],
    [
      " f",
      "art"
    ],
    [
      " fart",
      "her"
    ],
    [
      " V",
      "a"
    ],
    [
      " Pallav",
      "as"
    ],
    [
      " grow",
      "n"
    ],
    [
      "lac",
      "ed"
    ],
    [
      " pl",
      "ac"
    ],
    [
      " N",
      "o"
    ],
    [
      " consist",
      "ently"
    ],
    [
      " c",
      "ore"
    ],
    [
      " The",
      "y"
    ],
    [
      "it",
      "ated"
    ],
    [
      "ur",
      "g"
    ],
    [
      " t",
      "emp"
    ],
    [
      " an",
      "other"
    ],
    [
      "el",
      "t"
    ],
    [
      " m",
      "er"
    ],
    [
      " mer",
      "ch"
    ],
    [
      " schol",
      "ars"
    ],
    [
      " trans",
      "l"
    ],
    [
      "A",
      "fter"
    ],
    [
      "a",
      "di"
    ],
    [
      " us",
      "ing"
    ],
    [
      "hor",
      "se"
    ],
    [
      "is",
      "ing"
    ],
    [
      "ic",
      "ity"
    ],
    [
      " establ",
      "ish"
    ],
    [
      "M",
      "us"
    ],
    [
      " l",
      "aw"
    ],
    [
      " law",
      "s"
    ],
    [
      "y",
      "st"
    ],
    [
      " str",
      "ong"
    ],
    [
      " bu",
      "ild"
    ],
    [
      " f",
      "ell"
    ],
    [
      " sup",
      "eri"
    ],
    [
      " superi",
      "or"
    ],
    [
      " m",
      "ob"
    ],
    [
      " mob",
      "ility"
    ],
    [
      " war",
      "ri"
    ],
    [
      " warri",
      "ors"
    ],
    [
      "r",
      "ative"
    ],
    [
      " tri",
      "bal"
    ],
    [
      " A",
      "k"
    ],
    [
      " re",
      "ven"
    ],
    [
      " reven",
      "ues"
    ],
    [
      " m",
      "and"
    ],
    [
      "a",
      "id"
    ],
    [
      " market",
      "s"
    ],
    [
      " maint",
      "ained"
    ],
    [
      "p",
      "ut"
    ],
    [
      " c",
      "oll"
    ],
    [
      " exper",
      "i"
    ],
    [
      "and",
      "ing"
    ],
    [
      " im",
      "perial"
    ],
    [
      " increasing",
      "ly"
    ],
    [
      " compan",
      "ies"
    ],
    [
      "n",
      "ot"
    ],
    [
      " coast",
      "al"
    ],
    [
      " resour",
      "ces"
    ],
    [
      " adv",
      "anced"
    ],
    [
      " str",
      "ength"
    ],
    [
      " att",
      "ract"
    ],
    [
      " c",
      "rucial"
    ],
    [
      " subsequ",
      "ent"
    ],
    [
      " good",
      "s"
    ],
    [
      " inst",
      "ead"
    ],
    [
      " sup",
      "p"
    ],
    [
      " M",
      "any"
    ],
    [
      " consid",
      "er"
    ],
    [
      "s",
      "et"
    ],
    [
      " c",
      "ur"
    ],
    [
      " cons",
      "ci"
    ],
    [
      " D",
      "al"
    ],
    [
      " ra",
      "il"
    ],
    [
      " rail",
      "w"
    ],
    [
      "el",
      "eg"
    ],
    [
      "ell",
      "ion"
    ],
    [
      " prin",
      "ces"
    ],
    [
      " sa",
      "fe"
    ],
    [
      "gu",
      "ard"
    ],
    [
      " 18",
      "85"
    ],
    [
      " h",
      "alf"
    ],
    [
      " far",
      "mers"
    ],
    [
      " d",
      "epend"
    ],
    [
      "p",
      "ay"
    ],
    [
      " employ",
      "ment"
    ],
    [
      " gener",
      "ated"
    ],
    [
      " f",
      "ood"
    ],
    [
      "ress",
      "ive"
    ],
    [
      "ul",
      "e"
    ],
    [
      " 19",
      "30"
    ],
    [
      " dec",
      "ade"
    ],
    [
      " particip",
      "ation"
    ],
    [
      " p",
      "ush"
    ],
    [
      " t",
      "emper"
    ],
    [
      " liber",
      "al"
    ],
    [
      " p",
      "ers"
    ],
    [
      "ist",
      "ent"
    ],
    [
      " v",
      "iolence"
    ],
    [
      " N",
      "ort"
    ],
    [
      " Nort",
      "heast"
    ],
    [
      " sup",
      "er"
    ],
    [
      " G",
      "ond"
    ],
    [
      " Gond",
      "w"
    ],
    [
      "w",
      "ard"
    ],
    [
      " spread",
      "ing"
    ],
    [
      " s",
      "he"
    ],
    [
      " h",
      "or"
    ],
    [
      "he",
      "ad"
    ],
    [
      "du",
      "ction"
    ],
    [
      " ra",
      "p"
    ],
    [
      " rap",
      "id"
    ],
    [
      "er",
      "ly"
    ],
    [
      " l",
      "ies"
    ],
    [
      " remain",
      "ing"
    ],
    [
      " r",
      "un"
    ],
    [
      "ot",
      "a"
    ],
    [
      "har",
      "k"
    ],
    [
      "hark",
      "hand"
    ],
    [
      " East",
      "ern"
    ],
    [
      " cont",
      "ains"
    ],
    [
      " e",
      "qu"
    ],
    [
      " l",
      "at"
    ],
    [
      " lat",
      "itud"
    ],
    [
      " sub",
      "st"
    ],
    [
      " subst",
      "ant"
    ],
    [
      "ut",
      "ra"
    ],
    [
      " dra",
      "in"
    ],
    [
      "am",
      "un"
    ],
    [
      "os",
      "ition"
    ],
    [
      " coast",
      "line"
    ],
    [
      " k",
      "il"
    ],
    [
      " kil",
      "omet"
    ],
    [
      " kilomet",
      "res"
    ],
    [
      "ak",
      "sh"
    ],
    [
      "aksh",
      "ad"
    ],
    [
      "akshad",
      "we"
    ],
    [
      "akshadwe",
      "ep"
    ],
    [
      "u",
      "v"
    ],
    [
      " cl",
      "imate"
    ],
    [
      " sum",
      "mer"
    ],
    [
      " t",
      "ropical"
    ],
    [
      "at",
      "ures"
    ],
    [
      " caus",
      "e"
    ],
    [
      " employ",
      "ed"
    ],
    [
      " cont",
      "ain"
    ],
    [
      " endem",
      "ic"
    ],
    [
      " habit",
      "at"
    ],
    [
      " m",
      "am"
    ],
    [
      " mam",
      "m"
    ],
    [
      " mamm",
      "als"
    ],
    [
      "mp",
      "hib"
    ],
    [
      " pl",
      "ant"
    ],
    [
      " ir",
      "rig"
    ],
    [
      " irrig",
      "ation"
    ],
    [
      " vis",
      "ible"
    ],
    [
      " t",
      "rees"
    ],
    [
      "ough",
      "t"
    ],
    [
      " des",
      "cend"
    ],
    [
      " Euras",
      "ia"
    ],
    [
      " exch",
      "ange"
    ],
    [
      " St",
      "ill"
    ],
    [
      " cont",
      "rast"
    ],
    [
      "gest",
      "ed"
    ],
    [
      "t",
      "re"
    ],
    [
      " che",
      "etah"
    ],
    [
      " 19",
      "35"
    ],
    [
      " T",
      "iger"
    ],
    [
      "mend",
      "ments"
    ],
    [
      " h",
      "und"
    ],
    [
      " hund",
      "red"
    ],
    [
      "osp",
      "here"
    ],
    [
      "erv",
      "es"
    ],
    [
      "s",
      "ar"
    ],
    [
      "P",
      "olitics"
    ],
    [
      "eral",
      "ly"
    ],
    [
      " consid",
      "ered"
    ],
    [
      " off",
      "ice"
    ],
    [
      " remain",
      "ed"
    ],
    [
      " di",
      "ed"
    ],
    [
      " 196",
      "4"
    ],
    [
      " Indi",
      "ra"
    ],
    [
      " S",
      "he"
    ],
    [
      " def",
      "eat"
    ],
    [
      "con",
      "t"
    ],
    [
      " Emer",
      "gency"
    ],
    [
      "j",
      "i"
    ],
    [
      " minist",
      "ers"
    ],
    [
      " oper",
      "ation"
    ],
    [
      " 19",
      "84"
    ],
    [
      " 19",
      "89"
    ],
    [
      " Fron",
      "t"
    ],
    [
      " al",
      "liance"
    ],
    [
      " r",
      "ound"
    ],
    [
      "k",
      "ing"
    ],
    [
      "im",
      "ha"
    ],
    [
      " government",
      "s"
    ],
    [
      " f",
      "oll"
    ],
    [
      " foll",
      "ow"
    ],
    [
      " d",
      "ue"
    ],
    [
      " Democ",
      "ratic"
    ],
    [
      "D",
      "A"
    ],
    [
      " comp",
      "let"
    ],
    [
      " prop",
      "osed"
    ],
    [
      " S",
      "on"
    ],
    [
      " Son",
      "ia"
    ],
    [
      " U",
      "PA"
    ],
    [
      " Mo",
      "di"
    ],
    [
      " ab",
      "s"
    ],
    [
      "os",
      "ing"
    ],
    [
      " Democ",
      "racy"
    ],
    [
      " 19",
      "46"
    ],
    [
      " constitution",
      "al"
    ],
    [
      " h",
      "ous"
    ],
    [
      " S",
      "ab"
    ],
    [
      " Sab",
      "ha"
    ],
    [
      " elect",
      "ed"
    ],
    [
      "t",
      "ouchability"
    ],
    [
      "g",
      "al"
    ],
    [
      " distin",
      "ctions"
    ],
    [
      "iz",
      "ed"
    ],
    [
      " s",
      "eat"
    ],
    [
      " seat",
      "s"
    ],
    [
      "oun",
      "cil"
    ],
    [
      "in",
      "et"
    ],
    [
      " sub",
      "ord"
    ],
    [
      " subord",
      "in"
    ],
    [
      " a",
      "ction"
    ],
    [
      "em",
      "s"
    ],
    [
      " Cap",
      "ital"
    ],
    [
      " Ter",
      "rit"
    ],
    [
      "B",
      "i"
    ],
    [
      "C",
      "h"
    ],
    [
      "eral",
      "a"
    ],
    [
      "M",
      "ad"
    ],
    [
      "gh",
      "alay"
    ],
    [
      "ghalay",
      "a"
    ],
    [
      "k",
      "im"
    ],
    [
      "ri",
      "pura"
    ],
    [
      " D",
      "aman"
    ],
    [
      " Di",
      "u"
    ],
    [
      "J",
      "am"
    ],
    [
      " becom",
      "ing"
    ],
    [
      " play",
      "ed"
    ],
    [
      " w",
      "ent"
    ],
    [
      "cur",
      "s"
    ],
    [
      "e",
      "as"
    ],
    [
      " ar",
      "ms"
    ],
    [
      " t",
      "est"
    ],
    [
      "r",
      "ound"
    ],
    [
      " sign",
      "ed"
    ],
    [
      " T",
      "reat"
    ],
    [
      " Treat",
      "y"
    ],
    [
      "rol",
      "if"
    ],
    [
      "rolif",
      "eration"
    ],
    [
      " str",
      "ategic"
    ],
    [
      "re",
      "ement"
    ],
    [
      "iv",
      "ers"
    ],
    [
      " S",
      "up"
    ],
    [
      " e",
      "arli"
    ],
    [
      " earli",
      "er"
    ],
    [
      " restric",
      "t"
    ],
    [
      " restrict",
      "ions"
    ],
    [
      " en",
      "ergy"
    ],
    [
      " F",
      "r"
    ],
    [
      "Ec",
      "onomy"
    ],
    [
      " domest",
      "ic"
    ],
    [
      " pur",
      "ch"
    ],
    [
      " ann",
      "ual"
    ],
    [
      "ograph",
      "ics"
    ],
    [
      "itt",
      "ances"
    ],
    [
      " contribut",
      "ed"
    ],
    [
      " six",
      "te"
    ],
    [
      " sixte",
      "enth"
    ],
    [
      " export",
      "er"
    ],
    [
      " B",
      "etween"
    ],
    [
      " project",
      "ed"
    ],
    [
      " s",
      "ur"
    ],
    [
      "ess",
      "ion"
    ],
    [
      " e",
      "qual"
    ],
    [
      " un",
      "its"
    ],
    [
      "c",
      "er"
    ],
    [
      " to",
      "p"
    ],
    [
      "at",
      "ts"
    ],
    [
      " gre",
      "en"
    ],
    [
      " g",
      "as"
    ],
    [
      " em",
      "iss"
    ],
    [
      " emiss",
      "ions"
    ],
    [
      " p",
      "erson"
    ],
    [
      " In",
      "c"
    ],
    [
      " pri",
      "or"
    ],
    [
      " res",
      "id"
    ],
    [
      " resid",
      "ents"
    ],
    [
      " b",
      "rought"
    ],
    [
      " p",
      "ost"
    ],
    [
      " 11",
      "3"
    ],
    [
      "at",
      "io"
    ],
    [
      "ant",
      "ic"
    ],
    [
      " g",
      "irl"
    ],
    [
      "M",
      "ig"
    ],
    [
      "am",
      "ic"
    ],
    [
      " l",
      "ived"
    ],
    [
      " M",
      "umb"
    ],
    [
      " Mumb",
      "ai"
    ],
    [
      "L",
      "angua"
    ],
    [
      "Langua",
      "ges"
    ],
    [
      " b",
      "re"
    ],
    [
      " bre",
      "ak"
    ],
    [
      " sp",
      "eak"
    ],
    [
      " speak",
      "ers"
    ],
    [
      " sol",
      "e"
    ],
    [
      "ic",
      "on"
    ],
    [
      " num",
      "eral"
    ],
    [
      " numeral",
      "s"
    ],
    [
      " eff",
      "ect"
    ],
    [
      "ef",
      "in"
    ],
    [
      " l",
      "ist"
    ],
    [
      " Ass",
      "am"
    ],
    [
      " K",
      "ashm"
    ],
    [
      " Kashm",
      "iri"
    ],
    [
      "19",
      "67"
    ],
    [
      " K",
      "on"
    ],
    [
      " Kon",
      "k"
    ],
    [
      " ad",
      "her"
    ],
    [
      " decl",
      "ar"
    ],
    [
      " f",
      "reedom"
    ],
    [
      " D",
      "on"
    ],
    [
      "i",
      "am"
    ],
    [
      " percent",
      "age"
    ],
    [
      " imp",
      "ro"
    ],
    [
      " 9",
      "3"
    ],
    [
      "ik",
      "a"
    ],
    [
      " school",
      "s"
    ],
    [
      " b",
      "urden"
    ],
    [
      " t",
      "uberculosis"
    ],
    [
      " stat",
      "istics"
    ],
    [
      " acc",
      "ount"
    ],
    [
      "ut",
      "ed"
    ],
    [
      "reat",
      "h"
    ],
    [
      " ne",
      "ed"
    ],
    [
      " unique",
      "ly"
    ],
    [
      " Brah",
      "min"
    ],
    [
      " pri",
      "ests"
    ],
    [
      "ud",
      "ra"
    ],
    [
      "cri",
      "ption"
    ],
    [
      "bro",
      "k"
    ],
    [
      "brok",
      "en"
    ],
    [
      " div",
      "ided"
    ],
    [
      " c",
      "ustom"
    ],
    [
      " occup",
      "ational"
    ],
    [
      " cho",
      "ice"
    ],
    [
      " initi",
      "atives"
    ],
    [
      " discrimin",
      "ation"
    ],
    [
      " marri",
      "ages"
    ],
    [
      " par",
      "ents"
    ],
    [
      "ach",
      "ing"
    ],
    [
      " more",
      "over"
    ],
    [
      " Th",
      "ousand"
    ],
    [
      " us",
      "ually"
    ],
    [
      " se",
      "al"
    ],
    [
      " prob",
      "ably"
    ],
    [
      "oo",
      "th"
    ],
    [
      "ip",
      "le"
    ],
    [
      " c",
      "ut"
    ],
    [
      " s",
      "ites"
    ],
    [
      " A",
      "j"
    ],
    [
      " general",
      "ly"
    ],
    [
      " regard",
      "ed"
    ],
    [
      " s",
      "aw"
    ],
    [
      " form",
      "ula"
    ],
    [
      " f",
      "ine"
    ],
    [
      " fine",
      "ly"
    ],
    [
      " dyn",
      "ast"
    ],
    [
      "z",
      "e"
    ],
    [
      " su",
      "st"
    ],
    [
      " sy",
      "mbol"
    ],
    [
      " scen",
      "es"
    ],
    [
      " man",
      "us"
    ],
    [
      " st",
      "art"
    ],
    [
      " p",
      "rincely"
    ],
    [
      " f",
      "olk"
    ],
    [
      " C",
      "al"
    ],
    [
      " S",
      "u"
    ],
    [
      "or",
      "em"
    ],
    [
      "al",
      "though"
    ],
    [
      " contribut",
      "ions"
    ],
    [
      " Brah",
      "ma"
    ],
    [
      "pt",
      "a"
    ],
    [
      "h",
      "av"
    ],
    [
      " z",
      "er"
    ],
    [
      " zer",
      "o"
    ],
    [
      " neg",
      "ative"
    ],
    [
      " al",
      "gebra"
    ],
    [
      " con",
      "ce"
    ],
    [
      " f",
      "un"
    ],
    [
      " fun",
      "ctions"
    ],
    [
      " cal",
      "cul"
    ],
    [
      " Srin",
      "iv"
    ],
    [
      " Sriniv",
      "as"
    ],
    [
      " mus",
      "ical"
    ],
    [
      " orig",
      "ins"
    ],
    [
      " Hindust",
      "ani"
    ],
    [
      "oc",
      "us"
    ],
    [
      "oun",
      "ter"
    ],
    [
      " heav",
      "ily"
    ],
    [
      " t",
      "urn"
    ],
    [
      " d",
      "etermined"
    ],
    [
      " Ac",
      "adem"
    ],
    [
      " e",
      "ight"
    ],
    [
      "k",
      "nown"
    ],
    [
      " prom",
      "in"
    ],
    [
      "d",
      "as"
    ],
    [
      " Ch",
      "ha"
    ],
    [
      " Chha",
      "u"
    ],
    [
      " Y",
      "aks"
    ],
    [
      " Yaks",
      "hag"
    ],
    [
      " Yakshag",
      "ana"
    ],
    [
      "il",
      "a"
    ],
    [
      " f",
      "est"
    ],
    [
      "on",
      "our"
    ],
    [
      "cent",
      "ury"
    ],
    [
      " Dis",
      "cov"
    ],
    [
      " in",
      "div"
    ],
    [
      " indiv",
      "id"
    ],
    [
      " individ",
      "ual"
    ],
    [
      "w",
      "ood"
    ],
    [
      " sh",
      "ould"
    ],
    [
      " g",
      "ar"
    ],
    [
      "al",
      "w"
    ],
    [
      " k",
      "ame"
    ],
    [
      " kame",
      "ez"
    ],
    [
      " n",
      "arrow"
    ],
    [
      "u",
      "ff"
    ],
    [
      " dra",
      "w"
    ],
    [
      " ch",
      "u"
    ],
    [
      " chu",
      "rid"
    ],
    [
      " churid",
      "ars"
    ],
    [
      " s",
      "ide"
    ],
    [
      " c",
      "hi"
    ],
    [
      " t",
      "yp"
    ],
    [
      " d",
      "eal"
    ],
    [
      " r",
      "are"
    ],
    [
      " rare",
      "ly"
    ],
    [
      " found",
      "ation"
    ],
    [
      " ste",
      "amed"
    ],
    [
      " r",
      "ice"
    ],
    [
      " th",
      "in"
    ],
    [
      " ",
      "id"
    ],
    [
      " id",
      "li"
    ],
    [
      "l",
      "t"
    ],
    [
      " 3",
      "9"
    ],
    [
      " e",
      "at"
    ],
    [
      " eat",
      "en"
    ],
    [
      "t",
      "ern"
    ],
    [
      "ight",
      "ly"
    ],
    [
      " popular",
      "ity"
    ],
    [
      " t",
      "and"
    ],
    [
      " tand",
      "oor"
    ],
    [
      "ath",
      "an"
    ],
    [
      " An",
      "and"
    ],
    [
      "di",
      "sp"
    ],
    [
      " Ch",
      "amp"
    ],
    [
      " P",
      "ar"
    ],
    [
      " p",
      "ortal"
    ],
    [
      "O",
      "ut"
    ],
    [
      "N",
      "ot"
    ],
    [
      " O",
      "rig"
    ],
    [
      "at",
      "ar"
    ],
    [
      "ru",
      "gg"
    ],
    [
      "rugg",
      "le"
    ],
    [
      " ob",
      "serv"
    ],
    [
      " observ",
      "e"
    ],
    [
      " c",
      "ul"
    ],
    [
      " cul",
      "min"
    ],
    [
      " meth",
      "ods"
    ],
    [
      "at",
      "he"
    ],
    [
      " dis",
      "cov"
    ],
    [
      "h",
      "y"
    ],
    [
      " conn",
      "ected"
    ],
    [
      " int",
      "ers"
    ],
    [
      " e",
      "as"
    ],
    [
      " eas",
      "ily"
    ],
    [
      " att",
      "em"
    ],
    [
      " attem",
      "pt"
    ],
    [
      " attempt",
      "ed"
    ],
    [
      "ign",
      "s"
    ],
    [
      "io",
      "ge"
    ],
    [
      " inter",
      "im"
    ],
    [
      " h",
      "ier"
    ],
    [
      " hier",
      "archy"
    ],
    [
      " exp",
      "l"
    ],
    [
      " ge",
      "omet"
    ],
    [
      " int",
      "eg"
    ],
    [
      " Mad",
      "ras"
    ],
    [
      "A",
      "pril"
    ],
    [
      " ind",
      "ex"
    ],
    [
      " R",
      "efer"
    ],
    [
      " Refer",
      "ence"
    ],
    [
      " D",
      "a"
    ],
    [
      " H",
      "ead"
    ],
    [
      "rah",
      "am"
    ],
    [
      " Sour",
      "ce"
    ],
    [
      " Source",
      "book"
    ],
    [
      " For",
      "m"
    ],
    [
      " C",
      "ountries"
    ],
    [
      " 30",
      "2"
    ],
    [
      " 10",
      "8"
    ],
    [
      "7",
      "56"
    ],
    [
      " Mer",
      "riam"
    ],
    [
      "77",
      "9"
    ],
    [
      " D",
      "irect"
    ],
    [
      " Direct",
      "ory"
    ],
    [
      "00",
      "3"
    ],
    [
      " rem",
      "ains"
    ],
    [
      "B",
      "l"
    ],
    [
      " m",
      "anag"
    ],
    [
      " manag",
      "ed"
    ],
    [
      " population",
      "s"
    ],
    [
      " L",
      "owe"
    ],
    [
      " s",
      "om"
    ],
    [
      "ap",
      "e"
    ],
    [
      "re",
      "c"
    ],
    [
      " act",
      "ual"
    ],
    [
      " x",
      "v"
    ],
    [
      " xv",
      "iii"
    ],
    [
      "now",
      "ledge"
    ],
    [
      " Br",
      "er"
    ],
    [
      " Brer",
      "eton"
    ],
    [
      "und",
      "er"
    ],
    [
      " domin",
      "ant"
    ],
    [
      " prin",
      "cip"
    ],
    [
      "Hindu",
      "ism"
    ],
    [
      " particip",
      "ating"
    ],
    [
      "if",
      "est"
    ],
    [
      " 8",
      "6"
    ],
    [
      " o",
      "wing"
    ],
    [
      " in",
      "spir"
    ],
    [
      " inspir",
      "ation"
    ],
    [
      " 5",
      "9"
    ],
    [
      " V",
      "an"
    ],
    [
      " Br",
      "um"
    ],
    [
      " Brum",
      "m"
    ],
    [
      " Brumm",
      "elen"
    ],
    [
      "Ar",
      "ithmetic"
    ],
    [
      " Gl",
      "ick"
    ],
    [
      " Stev",
      "en"
    ],
    [
      " L",
      "ives"
    ],
    [
      " Lives",
      "ey"
    ],
    [
      " Wall",
      "is"
    ],
    [
      " M",
      "edicine"
    ],
    [
      "45",
      "93"
    ],
    [
      "4593",
      "2"
    ],
    [
      " 9",
      "0"
    ],
    [
      " Ram",
      "usack"
    ],
    [
      " Shar",
      "on"
    ],
    [
      " Indian",
      "a"
    ],
    [
      "25",
      "3"
    ],
    [
      " 10",
      "6"
    ],
    [
      " 2",
      "50"
    ],
    [
      " Ge",
      "or"
    ],
    [
      " A",
      "ld"
    ],
    [
      " T",
      "ra"
    ],
    [
      " 8",
      "5"
    ],
    [
      " Mar",
      "sh"
    ],
    [
      "he",
      "l"
    ],
    [
      "ill",
      "s"
    ],
    [
      " ",
      "if"
    ],
    [
      " tw",
      "ent"
    ],
    [
      " lead",
      "ers"
    ],
    [
      "i",
      "us"
    ],
    [
      " C",
      "opland"
    ],
    [
      " 26",
      "5"
    ],
    [
      " 2",
      "16"
    ],
    [
      " K",
      "enn"
    ],
    [
      " Kenn",
      "eth"
    ],
    [
      "A",
      "ksai"
    ],
    [
      " Reg",
      "ion"
    ],
    [
      "P",
      "iny"
    ],
    [
      "Piny",
      "in"
    ],
    [
      " A",
      "ks"
    ],
    [
      " Aks",
      "ay"
    ],
    [
      " Aksay",
      "q"
    ],
    [
      " Aksayq",
      "in"
    ],
    [
      "ad",
      "minist"
    ],
    [
      "administ",
      "ered"
    ],
    [
      "os",
      "worth"
    ],
    [
      " J",
      "eff"
    ],
    [
      " Jeff",
      "erson"
    ],
    [
      " Sch",
      "ol"
    ],
    [
      " Schol",
      "astic"
    ],
    [
      "7",
      "17"
    ],
    [
      "13",
      "9"
    ],
    [
      "AS",
      "H"
    ],
    [
      "ASH",
      "MI"
    ],
    [
      "ASHMI",
      "R"
    ],
    [
      " k",
      "ash"
    ],
    [
      "'",
      "m"
    ],
    [
      " Nar",
      "ayan"
    ],
    [
      " D",
      "enn"
    ],
    [
      "13",
      "2"
    ],
    [
      " imp",
      "act"
    ],
    [
      " St",
      "udy"
    ],
    [
      " Pl",
      "an"
    ],
    [
      " P",
      "M"
    ],
    [
      " PM",
      "C"
    ],
    [
      "9",
      "05"
    ],
    [
      " K",
      "aranth"
    ],
    [
      "10",
      "93"
    ],
    [
      "3",
      "87"
    ],
    [
      " J",
      "ha"
    ],
    [
      " Rog",
      "er"
    ],
    [
      " Relig",
      "ions"
    ],
    [
      " L",
      "e"
    ],
    [
      " ref",
      "ers"
    ],
    [
      " Ad",
      "ject"
    ],
    [
      "li",
      "ke"
    ],
    [
      " M",
      "att"
    ],
    [
      " S",
      "ah"
    ],
    [
      " Au",
      "st"
    ],
    [
      " b",
      "ran"
    ],
    [
      " W",
      "right"
    ],
    [
      "6",
      "2"
    ],
    [
      "or",
      "i"
    ],
    [
      " F",
      "o"
    ],
    [
      " Fo",
      "ot"
    ],
    [
      " Ph",
      "il"
    ],
    [
      "yl",
      "v"
    ],
    [
      " As",
      "oka"
    ],
    [
      " G",
      "ilbert"
    ],
    [
      " 1",
      "16"
    ],
    [
      " 11",
      "5"
    ],
    [
      "1",
      "17"
    ],
    [
      " 15",
      "1"
    ],
    [
      " B",
      "rown"
    ],
    [
      "10",
      "3"
    ],
    [
      " 19",
      "83"
    ],
    [
      " 20",
      "3"
    ],
    [
      " Con",
      "s"
    ],
    [
      " Cons",
      "um"
    ],
    [
      " Emer",
      "g"
    ],
    [
      " Emerg",
      "ing"
    ],
    [
      " f",
      "if"
    ],
    [
      " 26",
      "6"
    ],
    [
      "it",
      "ch"
    ],
    [
      " Mol",
      "nar"
    ],
    [
      " Pro",
      "b"
    ],
    [
      "orth",
      "y"
    ],
    [
      " where",
      "ver"
    ],
    [
      " Arch",
      "ae"
    ],
    [
      "n",
      "a"
    ],
    [
      " Inform",
      "ation"
    ],
    [
      " B",
      "ro"
    ],
    [
      " Bro",
      "ad"
    ],
    [
      " Broad",
      "c"
    ],
    [
      " Broadc",
      "asting"
    ],
    [
      " d",
      "eg"
    ],
    [
      "el",
      "s"
    ],
    [
      " G",
      "ov"
    ],
    [
      " S",
      "et"
    ],
    [
      "m",
      "odel"
    ],
    [
      " Mon",
      "it"
    ],
    [
      " R",
      "ec"
    ],
    [
      "I",
      "UCN"
    ],
    [
      "eb",
      "r"
    ],
    [
      " H",
      "er"
    ],
    [
      " F",
      "uture"
    ],
    [
      " H",
      "aryana"
    ],
    [
      " W",
      "TO"
    ],
    [
      "ar",
      "ative"
    ],
    [
      " S",
      "arah"
    ],
    [
      " E",
      "g"
    ],
    [
      " R",
      "ed"
    ],
    [
      " Th",
      "reatened"
    ],
    [
      "U",
      "K"
    ],
    [
      " D",
      "as"
    ],
    [
      "h",
      "ry"
    ],
    [
      "ar",
      "re"
    ],
    [
      "ric",
      "k"
    ],
    [
      " Black",
      "buck"
    ],
    [
      " k",
      "ept"
    ],
    [
      " Tod",
      "ay"
    ],
    [
      " R",
      "ise"
    ],
    [
      " El",
      "ection"
    ],
    [
      " S",
      "in"
    ],
    [
      " c",
      "y"
    ],
    [
      " A",
      "w"
    ],
    [
      " Dun",
      "leavy"
    ],
    [
      " St",
      "and"
    ],
    [
      " Stand",
      "ard"
    ],
    [
      " W",
      "ith"
    ],
    [
      "yle",
      "e"
    ],
    [
      " E",
      "ric"
    ],
    [
      " with",
      "d"
    ],
    [
      " B",
      "er"
    ],
    [
      " humili",
      "ated"
    ],
    [
      " g",
      "et"
    ],
    [
      "20",
      "21"
    ],
    [
      " C",
      "risis"
    ],
    [
      "c",
      "le"
    ],
    [
      " Ma",
      "o"
    ],
    [
      "op",
      "s"
    ],
    [
      " P",
      "LA"
    ],
    [
      " Arm",
      "y"
    ],
    [
      "16",
      "3"
    ],
    [
      " att",
      "ack"
    ],
    [
      "ac",
      "ific"
    ],
    [
      "p",
      "ective"
    ],
    [
      " co",
      "existence"
    ],
    [
      " W",
      "ood"
    ],
    [
      " Cent",
      "er"
    ],
    [
      "5",
      "56"
    ],
    [
      "fl",
      "ict"
    ],
    [
      " B",
      "hag"
    ],
    [
      " Har",
      "per"
    ],
    [
      " Harper",
      "C"
    ],
    [
      " HarperC",
      "oll"
    ],
    [
      " HarperColl",
      "ins"
    ],
    [
      " C",
      "ur"
    ],
    [
      " Ag",
      "rawal"
    ],
    [
      " x",
      "x"
    ],
    [
      " G",
      "ar"
    ],
    [
      " Econom",
      "ist"
    ],
    [
      " O",
      "pen"
    ],
    [
      " K",
      "ap"
    ],
    [
      " L",
      "ine"
    ],
    [
      " Fin",
      "an"
    ],
    [
      " Finan",
      "cial"
    ],
    [
      "ot",
      "echnology"
    ],
    [
      " Prov",
      "isional"
    ],
    [
      " O",
      "f"
    ],
    [
      " ab",
      "ort"
    ],
    [
      " on",
      "line"
    ],
    [
      " Vis",
      "aria"
    ],
    [
      " 6",
      "4"
    ],
    [
      " tri",
      "um"
    ],
    [
      " Muns",
      "hi"
    ],
    [
      "y",
      "ang"
    ],
    [
      "yang",
      "ar"
    ],
    [
      " W",
      "hat"
    ],
    [
      "ra",
      "ft"
    ],
    [
      " Com",
      "mit"
    ],
    [
      " Commit",
      "tee"
    ],
    [
      " Dun",
      "can"
    ],
    [
      "23",
      "07"
    ],
    [
      " Ec",
      "ology"
    ],
    [
      " M",
      "ult"
    ],
    [
      " Pal",
      "g"
    ],
    [
      " Palg",
      "rav"
    ],
    [
      " Palgrav",
      "e"
    ],
    [
      "13",
      "7"
    ],
    [
      "J",
      "anuary"
    ],
    [
      " Educ",
      "ation"
    ],
    [
      "if",
      "y"
    ],
    [
      "15",
      "6"
    ],
    [
      " A",
      "ge"
    ],
    [
      " Eng",
      "ineering"
    ],
    [
      " Col",
      "le"
    ],
    [
      " S",
      "ub"
    ],
    [
      "3",
      "82"
    ],
    [
      "in",
      "du"
    ],
    [
      " N",
      "Y"
    ],
    [
      " R",
      "ich"
    ],
    [
      " Rich",
      "ard"
    ],
    [
      " el",
      "se"
    ],
    [
      "te",
      "ille"
    ],
    [
      " describ",
      "ed"
    ],
    [
      "re",
      "y"
    ],
    [
      " pos",
      "itions"
    ],
    [
      " Sec",
      "ond"
    ],
    [
      "em",
      "orial"
    ],
    [
      "N",
      "ew"
    ],
    [
      " B",
      "lo"
    ],
    [
      "oms",
      "b"
    ],
    [
      "omsb",
      "ury"
    ],
    [
      " sist",
      "er"
    ],
    [
      " brother",
      "s"
    ],
    [
      "3",
      "8"
    ],
    [
      " Miche",
      "ll"
    ],
    [
      "2",
      "51"
    ],
    [
      " P",
      "lofker"
    ],
    [
      " B",
      "ourbaki"
    ],
    [
      " Arab",
      "s"
    ],
    [
      " meth",
      "od"
    ],
    [
      " a",
      "str"
    ],
    [
      " astr",
      "onom"
    ],
    [
      " astronom",
      "ers"
    ],
    [
      " t",
      "ables"
    ],
    [
      " P",
      "ear"
    ],
    [
      " Pear",
      "son"
    ],
    [
      " Perform",
      "ance"
    ],
    [
      "ath",
      "ak"
    ],
    [
      "ar",
      "lo"
    ],
    [
      "78",
      "9"
    ],
    [
      " An",
      "g"
    ],
    [
      "O",
      "M"
    ],
    [
      " Book",
      "s"
    ],
    [
      " Liter",
[...]
